
/**
  ******************************************************************************
  * @file    network_data.c
  * @author  AST Embedded Analytics Research Platform
  * @date    Sat Feb 26 21:32:03 2022
  * @brief   AI Tool Automatic Code Generator for Embedded NN computing
  ******************************************************************************
  * @attention
  *
  * Copyright (c) 2021 STMicroelectronics.
  * All rights reserved.
  *
  * This software is licensed under terms that can be found in the LICENSE file
  * in the root directory of this software component.
  * If no LICENSE file comes with this software, it is provided AS-IS.
  ******************************************************************************
  */
#include "network_data.h"
#include "ai_platform_interface.h"

AI_API_DECLARE_BEGIN

AI_ALIGNED(32)
const ai_u64 s_network_network_weights_array_u64[ 35964 ] = {
  0x3e8b08363e8120afU, 0x3e9ab6aabdb147d8U, 0x3d59e94fbda8e229U, 0x3e2d46acbe3b7c56U,
  0xbe8b69763e877f1cU, 0x3d2ec1fd3e8c0bb6U, 0x3d39df413e7621d1U, 0xbd8c70163e14c964U,
  0x3c9016323e736425U, 0x3dabbc74be17baefU, 0xbcd795aabe1781a0U, 0x3e78a4bbbdfd4884U,
  0xbe2022a7be88b16eU, 0xbe54eb6fbdb39a81U, 0xbeb991813c0add40U, 0xbe91b5a53ea0bf30U,
  0x3d68109e3e799d6aU, 0x3e414358bdef2bccU, 0x3e891a1e3d29d3d8U, 0xbe04a3ac3cff1708U,
  0xbe02c3a13d7e5868U, 0x3e94a9f43e0aa1cdU, 0xbe156a403e32315cU, 0x3d4b83423e3d1d11U,
  0xbe4fe5853e31ba71U, 0xbdebf746bea8896bU, 0x3e8ef977be7f8908U, 0x3e080b243dc0932cU,
  0xbca262b53dccd8c8U, 0xbe7f683b3e7c6e7dU, 0xbe72a09f3c3e9a65U, 0xbdfb66153dba80e9U,
  0xbdad70ea3dbdb9dfU, 0xbe57ee233e8d129bU, 0xbe44eb21be661dd5U, 0x3ddb05233e9af018U,
  0xbe8c40b93ea3ea41U, 0xbe73a7bfbea60dd1U, 0x3e13e725be53b434U, 0x3e9bbf503e210629U,
  0xbe58e810be1a9684U, 0xbde73c213e42d770U, 0xbd2578543e6da27eU, 0xbe8ab4323e7ca4adU,
  0x3dceb4d0be381833U, 0xbdc9879a3d91407aU, 0x3e5d8deb3e3614a7U, 0xbe4f211bbe859df6U,
  0xbdfb01e33e9d7172U, 0xbe9f98f2be0b7a9aU, 0x3dcbcb68be3695b2U, 0xbe6966f5bd110aeeU,
  0xbe66e52d3cd932d4U, 0xbe2f4ca8be8e0c1fU, 0xbe588f31be944edbU, 0x3d9867a13eae4cf6U,
  0xbe98317d3de8e791U, 0xbdd26533be5539aeU, 0xbe8e4dac3d83f594U, 0xbe3489afbdfdc712U,
  0xbdccbe093cb6187cU, 0xbe54e1c7391a86acU, 0xbe3088cdbe57b28fU, 0xbe8098fdbde7fb26U,
  0xbd9450db3e98b8bfU, 0x3de9a2c13e9564b6U, 0x3e6aeba8be96b314U, 0xbdfb3076bdb018feU,
  0xbeab6e56be8e1d51U, 0xbd5699fa3dff6c5fU, 0xbe8512b03e189b06U, 0xbe73cf583e81e0dbU,
  0x3e00587ebdfdb298U, 0x3e8c104e3e1540c3U, 0xbe9b9d8a3ed93679U, 0xbe203cbd3e1c40bbU,
  0xbebf81db3b82db3dU, 0xbe25ceb13e79b186U, 0x3d9aa11a3e16885dU, 0xbdf98cca3e5c6babU,
  0xbc06b77f3ddb4931U, 0xbd289e723d0dcb6fU, 0xbd8b63083c815011U, 0xbcf331ed3ca22933U,
  0xbd031a1fba764994U, 0x3c0d54b6bb5f1601U, 0xbc1bef82bd449ec1U, 0xbd879415bda9ff6cU,
  0xbc7e858c3d5315d4U, 0xbd33a71dbdd35f20U, 0xbd33dee33bbe98b7U, 0xbda071263de8347fU,
  0x3b40844a3d11fe9dU, 0x3d0e56c7bd1cbe31U, 0x3cb09551bdc1a027U, 0xbd94d96c3d3d1b29U,
  0x3c9006cb3d213c81U, 0xbca32902bac74ff8U, 0xbd7effd73cf858efU, 0x3d933ae93d0eaa18U,
  0xbcd87b7c3c90abfbU, 0xbdac41f9bca2073aU, 0xbdd437a53c87c5dcU, 0xbcba08b63d6dc960U,
  0x3d6397febd38c300U, 0xbd86ea233d201f66U, 0xbc6c35703ca4ebd1U, 0x3d85c5443cb23591U,
  0xbb52cfefbbcba98fU, 0x3d51860cbc6bdbceU, 0xbd05c2b8bdcb5643U, 0xbd6859ddbd47c8acU,
  0xbca3063b3d75248fU, 0xbd63a4353c8667e3U, 0x3d1eb64cbda9e44cU, 0x3cbcd83a3d7f4948U,
  0xbd39e3e7bbf9ed86U, 0xbd371395bd140ad0U, 0xbd77e9443d0f9acdU, 0xbd4dee39bd3e6322U,
  0xbd2f2bcf3bc0234cU, 0x3c85ec7bbcd68c73U, 0x3d52588fbd1cc158U, 0xbd774b30bcb97fa0U,
  0xbd15d10ebd8998f5U, 0x3ce97ceebe0a66e6U, 0xbc6ea7a23d5ab8a7U, 0xbc13c29dbcd9d163U,
  0xbd3d72ebbd3fb4f3U, 0x3d28101a3d59ee70U, 0x3d45c6e33d54ab15U, 0xbdd35bd1bd110108U,
  0x3d284b8cbd76949cU, 0x3db6eb7f3d6386d9U, 0xbcffd16f3da265b1U, 0xbc961534bddebea8U,
  0xbda6e2ff3d670a02U, 0xbcc483323d7934b8U, 0xbd7571033bc11fb2U, 0xbdd71ddc3d8da782U,
  0x3c92cd31bdab3e29U, 0x3bde1210bd5ae646U, 0xbc94827ebc340498U, 0xbcd8429fbdc64714U,
  0x3c7791363ba21f33U, 0xbd2954053d513e8cU, 0xbd026610bcee5e55U, 0x3ceab84abc9260c5U,
  0x3df48895bb2d6601U, 0x3c9d2d653c64686fU, 0xbc13fa98bd4eade1U, 0xbd16b5fd3d2e4e22U,
  0x3d8ff4bfbdbc648eU, 0xbb5e9e243dd2b1e9U, 0xba15104cbcfdd80fU, 0xbe01ae41bda96e0bU,
  0x3e28d154bd731b6aU, 0x3d138ba9bd838bd9U, 0xbc8dd6a83e11fdffU, 0x3cc7cccd3e214b93U,
  0x3e04ce613db3ffe3U, 0xbda8e4e23d3279bdU, 0x3c186216bc4a2430U, 0xbdfb53563dd18c23U,
  0x3c023a4dbd3ab95bU, 0xbd0ae53dbde63d54U, 0xbda292a53cc4cea5U, 0xbd2343773d23106eU,
  0x3d60be6b3c5207d6U, 0xbd9a113fbd8c5994U, 0x3d01030fbd2c4b7cU, 0xbd85f517bb8247fcU,
  0x3ce704c53b4f74a1U, 0xbdcee94abdb8e8bcU, 0x3c8742d93cdab34dU, 0x3d0d3f95bb77a580U,
  0x3d8105eebb266677U, 0xbd0fbe83bd365f78U, 0x3da59219bdb27c8fU, 0x3cedacebbcc6600bU,
  0x3da561acbdfae7d2U, 0xbd4905bbbce58539U, 0x3d96f65b3bc52d17U, 0xbd00479c3dcfc38cU,
  0x3daf07adbc8d53baU, 0xbdffced3bd42dd74U, 0x3dad43bdbd960d15U, 0x3c6e639ebcbd4c37U,
  0x3cb118463c21afd8U, 0xbd0fe6623d321d4eU, 0x3bba0109bcff7a4fU, 0x3ca7492fbdab3793U,
  0xbca356d63d0aba02U, 0xbd8d84f1bd98756aU, 0xbd598762bd604920U, 0xbdc6d05d3d2dbcf8U,
  0x3c9433debdc7e19aU, 0xbd2712a0bccf4f49U, 0xbcf5a1ee3cc98a2aU, 0x3d01d83d3d609f44U,
  0x3c73ca923d564af7U, 0x3cb7e97fbdd857b1U, 0x3cc3650e3de02ee0U, 0x3cae34fd3c7fbdd0U,
  0xbdcae32e3d515049U, 0x3cc7f7633c944797U, 0xbdb18a49bd527e1bU, 0xbd70f7dfbda033bfU,
  0xbd9a8be13d13b909U, 0xbd303ce7bd3c091eU, 0x3db815d5bcc3311bU, 0xbcde66823c8f939fU,
  0x3cb0194c3dbedf01U, 0xbcd231553db203fdU, 0xbd1c87febd82b092U, 0xbda5dd50bd8e11ccU,
  0xbcf14d95bd81e45eU, 0xbcc9179b3d15db18U, 0x3cd52ddabd195ff6U, 0xbb45d91d3bff019cU,
  0x3c7111a63c84655cU, 0xbd0a5b0abc0ccce5U, 0x3c00376aba01638bU, 0x3d30e82bbcfecadeU,
  0x3dc45e483dc4088aU, 0x3d11ec71bdf098b1U, 0xbcab0eb93a469924U, 0xbd9fc1843d76948fU,
  0xbde150bcbb9b39c7U, 0x3cc75ec03d3d0f22U, 0xbdb6e901bbb60444U, 0x3cb0e82f3cb7bb03U,
  0x3cc4f3ffbd2e5d03U, 0xbd75db1abda2440dU, 0xbce4550bbc71f25aU, 0x3ccf66343dbe70a4U,
  0xbd9c16d53d788e23U, 0x3d190cdf3e22e74dU, 0xbdcf35e4bc53a6c5U, 0xbcade5c5bd40c46eU,
  0xbd06e1b03bc9042cU, 0xbd9bd2c73d5d6b92U, 0xbc9c18063da93c47U, 0xbdb607b13db87661U,
  0xbdfa0616bc4a6900U, 0xbd52069a3ced750dU, 0xbd839f043cb74737U, 0xbc74ecefbcc10956U,
  0x3c94b179bd811eecU, 0x3c7660b93da5c619U, 0xbb9ec73bbc8d2686U, 0xbda0ed553d86431fU,
  0x3c48b74d3ce868f9U, 0xbd068f483cead4daU, 0xbda5a4a43d98f124U, 0xbd4ca1143d83a93cU,
  0x3d2302f6bd69fcc3U, 0x3d5155043db3e73bU, 0x3d4141e53d9d2c6fU, 0xbdc3db4fbd283e18U,
  0x3dd563443d1339a1U, 0x3cfda67dbc950adcU, 0xbd9de6403d7f9c85U, 0xba8084f23bd8d3fdU,
  0x3d5da6f83cd6a4abU, 0x3d8e3db53d6cfc71U, 0xbd53aed73db02c5dU, 0x3d50049bbd0b8dbcU,
  0x3d9904bdbdc990fbU, 0xbd0294b23ca99554U, 0xbd52968d3db286d4U, 0x3be7d2bf3ca73ee8U,
  0xbd8145b33d6f880cU, 0xbd6a9bc03d4a20e7U, 0xbcbed6033d851470U, 0xbd98b0ad3caf1ee1U,
  0xbd6928bd3ce84d8aU, 0x3c5f856a3ddf39ebU, 0xbddbe3dabaddf279U, 0xbc9975d93d481605U,
  0x3d18e2653cfb3848U, 0xbd9fa93fbcc81bb8U, 0xbd53753d3d8d57f1U, 0x3d1c2ec53b39ea2cU,
  0xbe1c4e983cd3e422U, 0xbd24a2e63d79b287U, 0xbd9282a7bdc23296U, 0x3b10b245bd8c826dU,
  0xbd563019bce510a3U, 0xbc9c89bfbd6227daU, 0xbd9f83ff3d310928U, 0xbd98340b3d14e250U,
  0xbd8d817c3ca85cc8U, 0xbd9121153df125d1U, 0x3c9cef92bda23b79U, 0x3d1e6e5dbbe3fab4U,
  0x3d49dd06bd7286dcU, 0x3d9d42f03d56babcU, 0xbd3d0b38bd9d9950U, 0x3d1339543d10357fU,
  0x3d485f583c89428cU, 0x3d9e0742bd46ce5fU, 0x3c9888373d505ff1U, 0xbd9d7dc33689a25fU,
  0xbd8ad7813c32176eU, 0xbcf218fcbd58e09cU, 0xbda470913d07d7dcU, 0xbd59a4bcbbcdcdf0U,
  0xbd4fc26dbc8ee413U, 0x3bf698a7bba6ef3cU, 0xbc759e6bbd27a706U, 0xbdbefa3b3cc608c0U,
  0xbc85febbbce6dcb4U, 0xbca72000bd7e47caU, 0xbd00a139bd26a49eU, 0xbda149053c148980U,
  0x3d9052233c3068c9U, 0x3d8e4ba9bd9cd6abU, 0x3ccf9580bd4223d5U, 0xbd744d9f3cd389baU,
  0xbc359d08bd7bed36U, 0xbd858a573d883205U, 0x3c82899fbcffb1c0U, 0xbca4da6bbd111692U,
  0xbd0a0f34bb917dcdU, 0x3c3371e03db87d98U, 0x3d2b210ebd91fb36U, 0x3d4371f63d60809dU,
  0xbd7808d13b21e6e0U, 0xbd4fc9b73ca80792U, 0xbda619633d3bfc28U, 0x3d8a40aa3d92c926U,
  0xbceeac4a3d0ce96dU, 0x3d1ffc0bbdcb2608U, 0xbdbdd2293c918fc7U, 0xbdbc3f213d784bb4U,
  0xbd18ec29bd717ac2U, 0xbc65552ebc3ee12eU, 0x3d81f9183db11416U, 0xbd2d8864bd1b00b8U,
  0xbdbf7d3abda241ecU, 0x3d54c915bd8a2ec2U, 0x3d7b56fcbd9ca747U, 0xbdb7c20e3dc53cf6U,
  0xbbf8faa93d79277eU, 0xbcf1e0d63c7f2455U, 0x3d46924ebcc83886U, 0xbca981f53d921267U,
  0x3cb9ba52bcea1224U, 0x3d8db2dbbdc65435U, 0x3d8e61463d18a8c6U, 0x3d3c8bb13b11db1bU,
  0x3d98e68f3c8ee7a4U, 0x3b9639febd85d7caU, 0xbdbafd3dbcf6bab5U, 0xbdf03f2a3bbfd1d1U,
  0x3dc402393c8d36aeU, 0xbd518ebebddf27a4U, 0x3ce804763cce19ccU, 0x3d27e9fb3db649f1U,
  0x3dc7d72cbd0544f4U, 0x3d1f2702bd05e68eU, 0xbd708f98bd8458eeU, 0x3c7bb3dd3ca2d134U,
  0x3d193d243d7e523cU, 0x3d85ff3dbd6e2319U, 0xbdb02d4abda2d5cfU, 0x3d78f7193dc43718U,
  0xbcfc1ae2bd481f17U, 0xbd9309363d859c9bU, 0xbd1620c6bd257a33U, 0x3da3a87cbcaaa19aU,
  0x3d7a5cd03d756950U, 0x3cf735473d72abeaU, 0x3c92bcdcbd193f33U, 0x3d86459c3d85a88aU,
  0x3d87ad93bd47a14dU, 0xbdccef1fbd77c445U, 0x3c8ba918bcdcdcabU, 0xbc82b7b33d8d10f4U,
  0xbcb17537bd826cb6U, 0xbd869bc0bd61d64bU, 0xbd580318bd245492U, 0x3c03a519bcfeebdcU,
  0xbd46653f3d5cf705U, 0x3cd33a09bc2a653fU, 0x3cdf67f8bb332d4cU, 0x3cd4ab3f3d678765U,
  0x3d6b7315bd656074U, 0xbc8946273cfe99adU, 0x3cfa705a3b1effb4U, 0xbbf65256bd04e4f6U,
  0xbd18e8af3daaf69bU, 0x3c6a347a3cc4cd73U, 0xbd5af268ba597042U, 0xbd435ec5bd8bc8b5U,
  0x3c8554b83c8f2f80U, 0x3ba760a0bc93b256U, 0x3d2dbd23bcf76ec8U, 0xbcebe2053d5ad5e0U,
  0x3d8cd4d03d6fef92U, 0xbdba4191bd945125U, 0xbdc12794bd3569cdU, 0x3d644a933d657b07U,
  0x3d434e873cb84a84U, 0xbd6b21d23d89c47eU, 0x3ca4580c3cd0b870U, 0xbd218b3c3d70aff8U,
  0x3d086ae63caf8460U, 0xbd8272e83d8a6f41U, 0x3d177e0e3c88b6c5U, 0xbcaec81cbd8f5c94U,
  0xbd8070de3cdf9378U, 0x3c63cf6a3c46fea5U, 0x3d8a2ab23d84316dU, 0x3d1f31b73c762f02U,
  0x3d30b3983d24a795U, 0x3dbc50b2bd75c94aU, 0xb9c253da3cb9cc9aU, 0xbd0d3630bd482a84U,
  0xbd6b343e3d2572aaU, 0xbdc6a127bd944d84U, 0x3d83a96c3c6c28c1U, 0xbb4fdb993c8bf7c1U,
  0xbca990a53db9a73dU, 0x3d198a45bd1b66c7U, 0xbd6781033b2fbde2U, 0x3d37bbcebc37f54bU,
  0xbd2ae734bcd942adU, 0xbd97b495bcd841d6U, 0x3b8cf9a1bd3f825bU, 0x3d39122dbd917480U,
  0x3c233ec3bd2af152U, 0x3d2d39cbbd1b9fceU, 0x3d9423d23cb75ee4U, 0x3d9d3ef0bd59bd48U,
  0xbc0fa1053d2353e3U, 0xbdb3d6aabd2bd091U, 0xbd9459acbdbad2ecU, 0xbcc2716dbcac6475U,
  0x3c746e223cfda360U, 0x3d232330bd0457e0U, 0xbd07cdf3bc853acdU, 0x3c91331ebd1fb6baU,
  0xbc1ce9693d9f3b60U, 0x3da6ba283d4cc351U, 0x3c3711ca3d00e7d2U, 0x3d6aefebbd844d76U,
  0xbb71b7843ce98d29U, 0x3cd308ecbd13b5e5U, 0xbcba9fe23cdebe60U, 0xbbab4b5ebd7a8ec9U,
  0xbd80d34b3d888e63U, 0x3cf31aeb3cc5e4a8U, 0x3b86a8c6bc93ff29U, 0xbd248fdcbd8ef9f5U,
  0xbd04419bba166f55U, 0xbc75c83c3d8e3b2bU, 0x3d60adefbc9fc2f9U, 0x3d9cb01fbd8ea06cU,
  0xbd31cbd93d9f5e19U, 0xbca9d5073c7c57c9U, 0xbd8732c4ba84b5b6U, 0x3d3c7e3cbda2b2e8U,
  0xbbfd32223d66b92fU, 0xbd5eb3f33d550983U, 0xbd3bfd35bd027d27U, 0xbdc70fd83d337826U,
  0x3c8cee8abdcfb71bU, 0x3d389bc5bd290163U, 0x3d2fb3443cebed59U, 0x3d6d18adbc4d3c31U,
  0x3b2a80b23d3d0d05U, 0x3d9e36aa3db3920eU, 0xbce86c04bdb99512U, 0xbe0cf01d3c966362U,
  0x3ddba5d2bd91f2bfU, 0x3da697393d068d29U, 0xbcd5dc25bc86ee5fU, 0x3d83c5933d37395eU,
  0x3d6e71103d8fb742U, 0x3dbf49713ca999a8U, 0x3d85630ebba9fd24U, 0xbe05a143bcda8cbcU,
  0x3d9e2e3fbd4e0a58U, 0xbd8bf65bbd81961aU, 0xbce32050bd837fb3U, 0xbd636c9bbd0cd213U,
  0x3c8541373d8a1a8fU, 0xbd1947643b195d6eU, 0xbccaa512bd2a4df0U, 0x3d3adb64bcf5fb8aU,
  0xbdb33cfa3db09571U, 0xbc70f62c3d2dac77U, 0x3c39fa173d6f6699U, 0xbd63c6babdf3bbb7U,
  0xbd338faebcd9d7e3U, 0x3c20922b3cb9db45U, 0xbd22254d3baaf4abU, 0xbd271f333b9a256eU,
  0xbd31b99e3c80d927U, 0xbd57e7e63dfc4dedU, 0xbd37ab73bd2ae2a4U, 0xbdc0e846bd9a3b8bU,
  0xbd5c1816bd9d3f22U, 0xbdc8d973bd9d284fU, 0xbcb13cf43d9c28e8U, 0xbd373452bb313f9cU,
  0xbd7f73b4bd6693c7U, 0x3ccdca6d3df687f1U, 0xbd10bf15bbba5c4aU, 0xbd97c6bebd745418U,
  0xbd93e0a03d3dc47eU, 0xbc4e8745bad85e38U, 0x3d775fc8bd78881cU, 0x3d124201bd9c37e4U,
  0x3d047f72bd38eff3U, 0xbd501753bcba9902U, 0xbc5f87ccbc8206caU, 0x3d940437bd888569U,
  0x3bc2b52fbc18fedaU, 0xbd4f7c243c5d2945U, 0x3d5d22a33d6490f6U, 0xbdb7e2efbcc82613U,
  0x3c67b5ef3d74a97fU, 0x3d84b321bc5427a8U, 0x3c560110bd9fefcdU, 0xbb6caabf3dcaaf3eU,
  0x3dbd1b563d336384U, 0xbd845b1bbd2851c6U, 0x3d2ade643db07ca7U, 0xbdc44e98bd0a1c7cU,
  0x3c98d1a53c9b54b4U, 0xbdb79028bde034abU, 0xbda36f0c3d9e0b72U, 0x3cdf07a73d94a9b7U,
  0x3d330a1fbd4f66a5U, 0x3db95e26bd0bef3fU, 0xba1eabde3d9a9264U, 0xbbd9e111bce26ccbU,
  0x3c3d86893d338e18U, 0x3d22bc723d041ca5U, 0x3ba6509fbce4900aU, 0x3d8987b03d3eccbaU,
  0xbd17b03a3c74463aU, 0x3af74e813c83f2aeU, 0x3d0b4720bd78065cU, 0xbca2c525bd56dc06U,
  0x3d7454c4bd98e6e0U, 0x3daa1cdc3a4f868aU, 0xbd1e03c5ba93b107U, 0x3d8a3fbb3bbfa333U,
  0x3c602026bd3537fcU, 0xbce767833cf5fd09U, 0xbd25a3173d52a8d1U, 0xbdf5cee6bd857c4eU,
  0xbc7772763cde998aU, 0x3d14a293bd4d7f22U, 0xbd3d01bf3d970aeeU, 0xbd91b1d93d8ad12cU,
  0xbc4d2c443d2562f6U, 0xbd6977513ce393cfU, 0x3d3d1154bd682db9U, 0xbc0fbac13ca19ab3U,
  0xbd60b0cabd8d0f1cU, 0x3d0b9afdbd4ba799U, 0xbd93f82ebd4fdb75U, 0x3d90a6f43dbb421cU,
  0xbd899f00bd11a761U, 0xbd5f132abd0da85dU, 0xbcc3142a3d4329b2U, 0xbb8c6c8e3d8644e8U,
  0xbc8751013d8ba832U, 0xbd9dccc0bdbb087aU, 0x3d3493f5bd5aeefdU, 0xbd7f77533dc24c0aU,
  0x3d8e8cdfbc95559cU, 0xbdf4b9ea3da92e50U, 0xbb2914e83d80f708U, 0xbd5857833dc213a5U,
  0x3d94bc09bd5cbf76U, 0x3da18e11bcfbbab6U, 0x3c5cf1a53c781a10U, 0xbb0565d0bceaf0b8U,
  0x3d15bcd4bd78e31cU, 0xbce8b53a3ba21dbdU, 0x3d903a75bd0545b6U, 0xbd5225e13c811e92U,
  0x3cf742e1bd7cc3a0U, 0x3d5fceb5bcf577ecU, 0x3d6a8fbf3da88602U, 0x3c923b163e0d3052U,
  0x3da9adb8bc48f94aU, 0xbd5c4bcfbc9ff951U, 0xbd50ce4fbd3ecb49U, 0x3d50d65ebd4995f9U,
  0x3b8c353dbd021ddcU, 0xbc84278dbe3a55cfU, 0x3d4f227f3d48d2a8U, 0xbd514e273e2c1927U,
  0x3c0c3e603bee6a4aU, 0xbcfb757c3a318f17U, 0x3d7976603d48309eU, 0x3d3eb39a3d6c00f3U,
  0xbde8bd603c116301U, 0xbdc3586f3d5ff7ceU, 0xbdb14e7d3b0b303aU, 0x3d141f41bdac35feU,
  0x3c1576d7bc2ea30bU, 0x3caab9a03d84d931U, 0x3d8e15abbc086cb4U, 0xbc8d2e08bd91b257U,
  0x3cc944d4bd3cf3e5U, 0x3c4a4f943b4885dfU, 0x3ceb6ac03d1d0db4U, 0x3d4e0b193bc075d6U,
  0x3d035699bbd83358U, 0xbd45f4babcd28b0aU, 0xbc316d7c3d98e52eU, 0xbd1e14303da6b892U,
  0x3bc64a3e3d080f4dU, 0x3cb34bccbe44e38aU, 0x3ce85590bd704b5aU, 0xbd82c94e3e003af1U,
  0xbd7c495a3c8dcfbeU, 0xbd3a0d833d676dbaU, 0x3cd01aa83d826d21U, 0xbcd709693dceb50bU,
  0xbd464ff43980201eU, 0xbd181147bccd1819U, 0x3d8cdd44bd036622U, 0xbc21fa173d31d0a1U,
  0xbd8b21233da27a69U, 0xbc36f64e3d99b5d5U, 0xbca3c0973d9861b3U, 0xbd8ddb433c8dd1bfU,
  0x3dc9e891bdba3414U, 0x3d11913d3ce2b720U, 0x3d4d2e743b4a0ed7U, 0xbbc793453cb710cbU,
  0x3cc7848e3d5c406dU, 0xbd8b9314bd82159fU, 0xbda552a1bd408017U, 0x3cbe9a23bd338112U,
  0xbc841fd0bcf24fb5U, 0xbd9bc420bd9f0f14U, 0x3d904236bd3279b9U, 0x3c9abbda3df95f07U,
  0xbcb398b23d699a04U, 0x3d937e46bd9bfd10U, 0x3bdf450c3d8a7448U, 0x3da4acf03d62aad9U,
  0x3c5dfa31bd2775e5U, 0x3d377c6abb25838cU, 0xbd1d6713bd9771baU, 0x3d860453bc4c9cc5U,
  0x3c175c1a3cdd7ce9U, 0xbd4ca83abd78408aU, 0x3d746ad9bd90a497U, 0xba6d7503bd3b9b2dU,
  0xbcc8d7373d87da72U, 0x3cbc59fcbd063a53U, 0xbd088a613ca4cb3bU, 0x3d004593bd553d5dU,
  0x3c306357bc85c956U, 0xbd3760933b9e8d58U, 0x3bc9a003bc208fdeU, 0x3c85e456bd4abb2fU,
  0x3d4476c4bc63fb77U, 0x3ad604843bbc9793U, 0x3d948c603d764beaU, 0xbda48ffb3d4cd52aU,
  0x3c60c51f3da19213U, 0xbd8b90c53d9acbe0U, 0xbcca878d3ac2a9c5U, 0xbd960b0d3dbc7ef5U,
  0x3c433a2fbdb7a252U, 0xbd385b22bd1849efU, 0x3d305f2bbbac018fU, 0xbd2b192dbd2e153cU,
  0xbd8e0addbd01621fU, 0x3c9b4c423d717696U, 0xbd618930bce87a79U, 0x3d833d403d8862dcU,
  0xbc54836a3cd05b6dU, 0xbcfb7d25bd213984U, 0x3ca82091bd77e737U, 0xbb0268a63b5f704aU,
  0xbd9c3a4cbca7972cU, 0x3cd66e1bbd8bc244U, 0x3ce475f93d1fc09fU, 0x3db668f23c39f8ecU,
  0x3a2c2b47bcbd02f7U, 0xbbad1933bc666b8aU, 0x3d95e5cb3d223b2fU, 0xbda3a558bc99b870U,
  0x3d2edb1d3c3df10bU, 0x3c34b6953d31d212U, 0xbd9f337e3c86053fU, 0x3e08afa63d93ed98U,
  0xbd9d529abd8dec63U, 0xbd6e192a3a8709abU, 0xbda6a72bbd78d6bfU, 0x3d29cee2bda639a7U,
  0x3d9bd036bd7a7b77U, 0xbcb521be3d348162U, 0x3c9649ed3d71a89aU, 0xbdc40eddbd086ec7U,
  0xbd3a2e04bd191f29U, 0x3ba050b5bda148deU, 0x3c4e3028bc36b8f9U, 0x3d9d28e0bd761d34U,
  0xbd89007d3c7512dbU, 0x3b8bc3c63990469eU, 0x3d0079fcbb902d05U, 0x3d7e5b71bdc099aaU,
  0x3b0ec54d3c062e46U, 0xbc2bdf72bd8526a7U, 0x3d4e1968bd09c5a8U, 0x3c8d265dbd13fce4U,
  0x3d1a3995bd52230dU, 0x3d43385a3d99788aU, 0xbdb653aebd4097c8U, 0xbda014d13ca6889fU,
  0xbd9addde3d8767b7U, 0x3ccc7d46bd912a0eU, 0x3d4e4824bd153062U, 0xbd7268f13d9b5193U,
  0xbd8b7b13bbb5e85dU, 0xbcb02e6abda4adfdU, 0x3be5a8b6bd525857U, 0x3ca4bd6abd934fa1U,
  0xbd75ece73d4f327fU, 0x3d0b7bbe3d2fc2c3U, 0xbcf409133b23334bU, 0x3da06131be057966U,
  0x3d1b706bb89c2593U, 0x3c0830633d1f20d0U, 0x3d0a2a52bd9db344U, 0x3dbd885d3d1b825eU,
  0xbd8c04333c3124c2U, 0xbb1f5ababc102543U, 0x3d3bada6bb0e25eaU, 0x3d52ade9bc91e378U,
  0xbd35b5db3d06130bU, 0xbb2b798539795fe8U, 0xbccaed60bdac104bU, 0x3d86722f3bc6654aU,
  0xbd200b5e3dca8704U, 0xbd049130bdb7a996U, 0x3cb2308e3cca1767U, 0xbca6e7f4bd1ca5f2U,
  0x3d9dfaa7bd34dc3eU, 0x3d8841253cd21fcfU, 0x3c71a73bbdb15798U, 0x3dbe0e023ce6250bU,
  0x3b6ec5593d8cd4daU, 0xbd894bb3bd6d808eU, 0xbd0c89a03c460c8eU, 0x3d4ef9153d14fa66U,
  0x3daf73b5bda21bd2U, 0x3daf74b2bb9d5fddU, 0xbdbd933ebdace33dU, 0x3df3e0e7bcaa0d91U,
  0x3de94730bd02c0aaU, 0xbd4a5190bd60decbU, 0x3d37b074bba8e687U, 0xbcb88ab63c474228U,
  0x3c5ee12a3cb1060bU, 0x3cb0b80fbd0bbcf3U, 0x3cc2ab433bdf4191U, 0x3d852eb03c8b7be8U,
  0x3d6ce4e23cbb9f2aU, 0x3ce2a985bcfa4d3aU, 0x3c77c5f0bb22b96bU, 0x3bdfaeea3bdde14bU,
  0x3cdfed983d154afcU, 0x3d510ef3bc93076fU, 0x3c450aa23d54550dU, 0xbccf26c53d9ad7bbU,
  0x3dc66c2fbc9725acU, 0x3cfc96073ca1a3efU, 0xbcf6f15fbc4ba757U, 0xbd6bc3363c727cfdU,
  0x3c059e8bbb714637U, 0xbd5d769c3d1f184dU, 0x3cb2e1c03da743dfU, 0xbabd440c3d37e2b2U,
  0x3d1b8a32bd761325U, 0x3d7d4a0dbba1bbf2U, 0xbd6162793c459c43U, 0xbd8bb37b3d884b32U,
  0x3d84c2debc8055afU, 0xbd943880bd8dd479U, 0x3ccd36433d92da94U, 0x3d243cc63d88e534U,
  0x3cac2d1d3c6d9a72U, 0xbd1b836b3d23a3e2U, 0xbcbe4624bd362984U, 0x3d84f8a3bd2fdf83U,
  0x3d502662bd9bac90U, 0xbd9126e53dae4e4dU, 0xbd2aa1eebda40b13U, 0xbc47346e3d5a5dd1U,
  0x3aac3adebd6ef0aaU, 0xbcc4ccc7bdd51bfbU, 0xbc8cee1a3c07ca8bU, 0x3c7416fe3dbdbe88U,
  0x3c4ff1533d3841d0U, 0x3d0b5673bc8daa02U, 0x3d8a8c5f3c16d828U, 0xbdc3331ebd830143U,
  0x3d994a393cbf48d7U, 0xbd68c1aabdc0d7c5U, 0x3d4e872b3d81694aU, 0x3c5e3f6fbc0846c2U,
  0x3d2d45d6bd8a02aaU, 0x3ccb2dd5bd88e806U, 0xbd9acb2b3d78d17dU, 0xbcb150c23d740718U,
  0x3d8f8bfd3cefe37bU, 0x3ce67473ba4f4a37U, 0xbd35c0c73d445406U, 0xbd1a056f3d6fbe71U,
  0xbd496c01bc2c1358U, 0x3d853bd2bc915107U, 0x3c8eb2263cba6f84U, 0xbd85d21fbd75513dU,
  0x3ca557bf3d2e2a70U, 0x3daa23bb3d499729U, 0x3bdbfe873db28229U, 0xbd55db96bcd17286U,
  0xbd551c013c18d0d4U, 0xbd50fc803d2a9277U, 0xbd9875133c468f1eU, 0x3d891af63d45f78cU,
  0x3d1dfe243c385f11U, 0xbd31e9c3bdf0b6c3U, 0x3d3b68a8bcb7f4b2U, 0x3d44a1473ad54476U,
  0x3daad5313d88b50dU, 0xbd1c19c93cd36190U, 0xbc0b7ec93d28bc40U, 0x3cf0c941bcc66aa4U,
  0xbdc0748cbdae8ca8U, 0x3cfdc060bda3a729U, 0xbdac9c0a3cf08516U, 0xb9057f863dc4a335U,
  0xbd7b8e93bd061cbdU, 0x3d2573e33d9f82d2U, 0xbd0a4b8bbd68406aU, 0xbda7a558bae1793fU,
  0x3d070d6b3d52a1bbU, 0x3d3b3bcabd104912U, 0xbd86d7c33d84d343U, 0x3d15b4193d8f4a80U,
  0xbc166ea83cd24401U, 0xbd616289bc4b59f1U, 0x3cbf355e3c298b5aU, 0xbdc29453bc5d1befU,
  0xbd3922e6bd1ebd7cU, 0x3d88ae6bbd84cea9U, 0xbd3032ccbd5a39d6U, 0xbd0946773d042de8U,
  0xba83e9873c99aa34U, 0xbd82ac963d1be88fU, 0xbd676a41bc6f1927U, 0x3b5d1f583d7307bdU,
  0x3d3366ebbd18b34eU, 0xbc7444d8bdb24b0dU, 0x3d48205a3c5b2441U, 0x3d1307683d456357U,
  0x3dbbde8c3dab063dU, 0xbdd7c906bdb2e8d5U, 0xbd5b1e883d8b10d0U, 0xbc1adbfe3dcc683dU,
  0x3bb1f85fbd59da26U, 0xbd49a94b3ce42133U, 0xbd9942363d20a6b2U, 0xbc9ba7723d408002U,
  0x3d4653ad3d9c064fU, 0xbe08f007bcc3fc70U, 0xbabfc77dbbace3b3U, 0x3d1188823c5b3ab6U,
  0x3d93b481bda52e37U, 0xbdc23c92bd4502dbU, 0x3cae55653d4c41a5U, 0xbdaa2d7d3db76973U,
  0x3c3c310a3d536b30U, 0xbd915262bdb917fcU, 0xbda24428bd6b990dU, 0xbd8d27dfbc3a087dU,
  0xbd5772efbdabf57cU, 0xbb67976ebd803d4dU, 0x3d5880ba3bfe7833U, 0xbda299363d5a7be2U,
  0x3d873b613dad80c2U, 0x3d322f29bcb75f37U, 0xbd82e1e83ab4c89dU, 0xbcf613b9bd3d359aU,
  0xbb9c566c3d81caa8U, 0x3d4758be3b6f668fU, 0xbda927aa3d887bd0U, 0x3d49d4cb3c2dc1eaU,
  0xbd2dc8683b6d7c6dU, 0xbd12a0f53cf5a381U, 0x3d9ab9ac3aa2d74cU, 0xbdc9d2543d742b6dU,
  0x3db65d1bbda4e9caU, 0x3cbbdb683cd8a0c4U, 0x3d6c8728bd62a2acU, 0x3cfaa9e6bd2c2992U,
  0x3d7054ed3cd13595U, 0xbd2f4e443d76d6ccU, 0xbbbf2788bc40911eU, 0xbda9431e3be5eca3U,
  0x3d60ef003c90def7U, 0x3d6b77e8bda28a5fU, 0x3be9a7f0bda385a5U, 0x3cf69d233d275e74U,
  0x3d95b4a73d8dbfaaU, 0xbdbf045c3d579973U, 0xbce572a93c9bd02eU, 0x3d0d9872bc395685U,
  0xba0a57493cceb8f0U, 0xbd6242e3bc83f837U, 0x3c68fc19bd9332b9U, 0xbcacf5b1bd8eeb87U,
  0xbd824c113d955da7U, 0xbdc8527f3d55539aU, 0xbc8284b63d14a8f4U, 0xbd23bee8bc2a0475U,
  0xbb2fe9fa3c820ef6U, 0x3d51c4d93d5d99cdU, 0x3da2c00e3d7f4534U, 0xbc742f753cfe689aU,
  0xbd57430dbd1a36cdU, 0xbdea4d7b3d22cb21U, 0xbd517efcbdad660bU, 0x3d387b68bcb4ba48U,
  0xbc92fb933cf9bcd8U, 0xbd3888283d566c3fU, 0x3d9e4ded3d0e6b2dU, 0xbcda9e993c532790U,
  0x3ad185cf3d8a33c2U, 0x3cf64e05bda088e3U, 0x3c996b673d79e556U, 0x3cb023ec3d44f088U,
  0x3ce31f813c998cceU, 0xbcf3dd6e3a6532caU, 0xbd88ee28bd503898U, 0xbd4769b2ba62157dU,
  0x3da8f318bcf80f9aU, 0x3cd69495bb062a71U, 0xbdb5c96439f6ad67U, 0xbc745011bb6c199dU,
  0x3d504b2f3c87eec3U, 0xbcc30e613d71aadfU, 0xbc8087543d2e0653U, 0x3cf6e3b2bd79447aU,
  0xbd2d52b33d5c9e95U, 0xbaa4e72ebd6154efU, 0xbd4a71513d0d5f28U, 0xbb69b7b7ba5c47f6U,
  0xbc09c9e3bce3045aU, 0xba012b313c350811U, 0x3c03d67cbd6c3c0eU, 0xbb2959a43da25ec4U,
  0x3d321d473d8b6efeU, 0x3d7862f83c25c1b5U, 0x3da76b09bd11e783U, 0xbd91b9503d9d8aeaU,
  0x3af067cabd1f8ef1U, 0xbc44d304bcf6c280U, 0xbbd61231bc1dabc3U, 0xbd948897bc104fc9U,
  0xbd86100fbd884f95U, 0xbd804ef0bd8b22f9U, 0xbda6a99b3d889b53U, 0x3d18567ebd7f044fU,
  0xbcfe0d5cbd5d80ccU, 0x3cf89bd93cfb9f2fU, 0xbd127f59bca894a1U, 0xbd168e25bb509a80U,
  0xbd104d023bbd7334U, 0xbd6d1d3dbcc229fdU, 0x3d6640233d8f2665U, 0xbd5906dabd6375d6U,
  0xbca36a40bd90b26aU, 0x3d5872853ca8573fU, 0x3cbb1c0fbd55c086U, 0x3c8d91c83cfa0c7cU,
  0xbb499b64bc7df699U, 0xbdc218fe3da7080eU, 0x3d1812c8bdadb596U, 0xbc8c4af53de777b1U,
  0x3db1c0cabd94f9cbU, 0xbca0ec63bd1af1f9U, 0xbc4de6bb3d58cd3eU, 0x3c14fa043d36d7afU,
  0x3d849c31bd285ec1U, 0xbd5508fabd84ee34U, 0x3d9960e9bcac82eeU, 0x3d6ac9e7bd0cd9ecU,
  0xbd268ddb3d9542c3U, 0xbd97740bbdb10677U, 0xbd3076b4bd00b08dU, 0x3d7179ee3ca9b987U,
  0x3d28e3963d1a218cU, 0xbd53c3dbbda407b8U, 0xbd2d22d0bd87fcb3U, 0x3c5c13adbd2b5225U,
  0xbc6c79c2bc9c42e4U, 0xbd2f8634bd9d8203U, 0xbd7f3327bb914aeeU, 0x3d444bf23d7d3e83U,
  0xbd664455bd28a40cU, 0xbd42a6a2bcdca0ddU, 0xbbfb69183d212f7dU, 0x3bd0f0efbd71c513U,
  0xbc8f8ee23a1a5b70U, 0xbc74d18c3dd1868dU, 0x3b6ee7583d463f8cU, 0xbc9fd835bd9b91a5U,
  0xbd847ff1bd206523U, 0x3d0c34ad3d191aabU, 0x3cafd2ad3c13064bU, 0x3d44b2c2bda5b652U,
  0x3ce872513d7e7b1fU, 0xbd816ecf3dda0fbeU, 0x3b77bea8bd7078b1U, 0x3d8bf58fbd639a3aU,
  0xbd194078bcda453cU, 0x3c9ea8d23d05be92U, 0x3d393c65bd3f8700U, 0xbbd8edae3d095758U,
  0xbc2150a23c54819bU, 0x3d8189963d66ff53U, 0xbd95fd9c3d5f625cU, 0x3d7adc8bbd0b6bbaU,
  0x3d0045b8bd56508cU, 0x3cd2c6b7bdb75cd8U, 0xbdbff1f53d50b023U, 0xbd20ff5cbd25a9a9U,
  0xbb3173e23daba36aU, 0xbd4e367d3d236a7eU, 0xbceaeebe3d07148dU, 0x3cb41688bd5d732fU,
  0x3b26d06bbcacea37U, 0xbc07f2ecbd65e86dU, 0x3d4b5a07bda4a2cfU, 0xbdd473f83d130723U,
  0x3cd8235fbbd228cdU, 0x3c8b96c33df3fd24U, 0xbd31acba3d2c3c84U, 0xbce586713d218f97U,
  0x3c8565d8bd885b0aU, 0x3da720743b6ea024U, 0xbbf520d43d89bdd7U, 0x3de81dfdbc60711eU,
  0x3cbb3f5abc57a6a9U, 0x3d3feca5bd495b59U, 0x3da9066e3da75320U, 0xbd99834c3c961287U,
  0x3db5ad673d32fa21U, 0xbb8c0e5a3c2b9effU, 0xbd0ffdc93cb45480U, 0x3c9aec6c3d33f934U,
  0xbd1202103d388a8dU, 0xbdc290343e065606U, 0x3d389ffcbb73fa8cU, 0xbd6bc8883cf14b98U,
  0x3d26ceba3d86bf9aU, 0x3db6a6f93d0293ccU, 0x3c42cd0c3c6384e4U, 0xbc7fd37c3d88cf46U,
  0xbb72a02d3b98f9f0U, 0xbb29598a3dcf0961U, 0x3d63eb2abdb4f065U, 0x3d15fff2bd64125fU,
  0x3c841eb53c14c982U, 0xbd2c0785bd521212U, 0x3d72f3b53d2b1f20U, 0xbd5b49dcbd334915U,
  0xbc3f651dbbc04d65U, 0xbd07d1f83d4cf0d7U, 0x3d5f80393d598bb7U, 0xbd0efa7cbdb5505eU,
  0x3d3bd39a3ccce704U, 0x3c8d1f1c3d31e6f8U, 0x3c3c9197bcd877fbU, 0xbbe932d7bd2c8de3U,
  0x3cc7f1dd3d2dbd38U, 0xbd91672bbd8f9b7bU, 0xbccb8ecc3cafaca3U, 0x3cd705493be53a3aU,
  0xbcd43ab13cb081cdU, 0xbbbc679bbda074c0U, 0xbac7633e3d75106eU, 0x3dbc827fbda650acU,
  0x3d7ec6453c43e7f0U, 0xbda4ecb9be095ab5U, 0x3c9eea0ebd4dc98aU, 0x3d455aeebd8231a7U,
  0x3d76f6f1bd129319U, 0x3d85ad5d3b255febU, 0xbb7bdf2bbd99f28bU, 0x3ddbc5e3bd51d968U,
  0xbcbcb23bbd355994U, 0xbd8b2741bc01228eU, 0x3d81431f3d33689aU, 0x3d8e3502bc119187U,
  0xbd9dfcbe3d5367e8U, 0xbd2c56d53cf5a8d6U, 0xbc150ca43bcaf808U, 0xbb50c04ebc9fafe5U,
  0x3c0c37adbdc7126bU, 0x3d473aba3cb541abU, 0x3d682d35bc775d44U, 0x38f68da5bd28dbddU,
  0xbda195ecbc848881U, 0x3d4393b73d52d129U, 0x3c1ddddcbda978ceU, 0xbd9d1f5d3d2ca5dbU,
  0x3d7512c0bd92539cU, 0xbd61d942bddef4c6U, 0xbcd06c74bc8b1eb0U, 0xbd838309bcf6db82U,
  0xbd4686703c1d9a8aU, 0x3c0172bd3ddaee94U, 0xbc24dc4dbdc94da6U, 0x3bf8d4c7bd4feeccU,
  0x3e0017ffbdbe642cU, 0xbd5b12a0bd96c512U, 0xbd8e248d3d7fa83fU, 0xbd1dbaefbc8e5f06U,
  0xbd6e090dbd52e305U, 0xbd6f90be3d83f931U, 0x3dd48c70bd01da1aU, 0xbd863b8f3dbbe379U,
  0xbd87e5a03d1f353cU, 0xbc9be3ee3db78653U, 0xbd6726e73dad1fb9U, 0xbd8cf0aebdb68adcU,
  0xbd10b034bdc7d194U, 0xbd2b8a83bd05eaccU, 0x3d9cf1ea3cdc264fU, 0xbd7bdd893d9c0454U,
  0x3ca9dd403d179250U, 0xbd64efc13d295b3bU, 0xbc4d7ffd3bdfef1cU, 0xbcb3d5ff3d2337a7U,
  0xbd07e96d3bafad0bU, 0xbce90a5abd6bf99dU, 0xbd1fa4943d5cfa79U, 0xbd08386fbd0aab12U,
  0xbd4a7f49bc9ab99fU, 0x3c82607a3cd83532U, 0x3c3a72adbd35800eU, 0xbdbfeb0a3c76f429U,
  0xbcc0215f3a28a438U, 0xbb0fb912bc9b266fU, 0x3d7b43c83d898d64U, 0xbd06e9443b0b9638U,
  0xbd88cb36bd76af98U, 0x3cbdefbfbb689221U, 0x3bdfab00bb361a69U, 0xbd70727bbbf6a712U,
  0xbc01d920bc92325fU, 0xbc56f0b2bbdb399cU, 0x3c1b681b3d400665U, 0x3d1faae43c6c8997U,
  0xbd4e2fc5bda05f39U, 0xbd9f42933d81c574U, 0x3d870602bce46506U, 0x3d6b2a753d5184f2U,
  0xbc27fd293db84674U, 0xbc79f6423d831304U, 0x3d7e1cf23cb499c2U, 0x3d9cbfa6bd96cca7U,
  0x3d0cdd1abda1cc58U, 0xbd868e023da0488bU, 0xbd5d4a4cbbd3b86cU, 0x3d5abff13bb4d944U,
  0xbd917e263dad46fdU, 0xbd36c3093bcb7dd6U, 0xbd3ff0a43d0a612aU, 0x3d911aad3d2c3be9U,
  0x3d04a226bd8fe6e0U, 0xbb29f91ebcc8b9ddU, 0xbcbb8063bdbe8301U, 0x3d119128bc255f50U,
  0x3d24df163d746bfeU, 0x3c128848bd6774a2U, 0x3d5f4dd53c481eebU, 0xbda58a79bcd5ddf8U,
  0xbd1f219f3d899750U, 0x3ca10cadbd8592e1U, 0x3be1f908bda52ba8U, 0xbd8e5e6a3ca56bbbU,
  0x3d9c51eb3c16109aU, 0x3c1b37b1bd1070acU, 0x3d4ff01fbd85ea0fU, 0xbcec498dbc56bdcbU,
  0x3d2cd5c73d22cc14U, 0x3d6928c13d599b25U, 0x3cb64d5b3d4be249U, 0x3d7507663dd76bc7U,
  0xbd38c2babc94e373U, 0x3d4169b23d239f0eU, 0xbbe67e323c1893b4U, 0xbd8212b5bce6a4b1U,
  0xbd7c05f9bd15d7c6U, 0x3d834acfbd92c3bfU, 0xbdb214cfbd675dbcU, 0xbc9c2b7a3d4ed248U,
  0x3cea666e3cdcec05U, 0xbd6b2a023cb82ee8U, 0xbda2d6babc161f6bU, 0xbd896057bba0bb08U,
  0xbdb3569bbd821ff8U, 0xbc32c6f43d8f9e1dU, 0x3cbe05e53d807b65U, 0x3d57154a3d6d754aU,
  0xbb85e776bd59b86dU, 0xbcce9438bba06336U, 0xbd0812e83da8d633U, 0xbc45b716bd720b24U,
  0xbc04f4c5bd9ab2c0U, 0xbc88eb643d265a65U, 0xbd604d0b3bc50dbaU, 0x3d7b8006bd581520U,
  0xbdf6c57abda31185U, 0x3c6477923e2c1cc6U, 0xbe126d70bcce8e92U, 0xbaf70f103c06fe28U,
  0xbd69a038b99b8598U, 0xbe1dece43cc91000U, 0x3dbea1eb3d57e701U, 0x39449542bdb46a6fU,
  0xbc3a28403c6def04U, 0xbbeb84233d793a28U, 0x3de0617cbc09dc28U, 0x3d81e8bd3d8931ccU,
  0x3d4d3f523d999efaU, 0x3d6a8bbf3bcb6a7cU, 0x3d73907a3da34218U, 0x3cadfefc3cd6f0daU,
  0xbd17aa2a3ba1a06cU, 0xbb8c689cb928e88dU, 0x3d37ab513d6f5446U, 0x3d0ef6be3c654053U,
  0x3d3a9450bd1a4401U, 0x3d6160c03d4138daU, 0x3d69aafabd456799U, 0x3da8cc58bb83f2e8U,
  0x3dcba42f3dc1350bU, 0xbce198143dcd6993U, 0xbc38bfd13db2e4ddU, 0xbabb1da03caf6c48U,
  0x3bd3abb03bc47382U, 0x3cff3657bb5df045U, 0xbc75ec6dbdaa081dU, 0x3d64542d3b9abb16U,
  0xbb2e37cabd3dd812U, 0xbd3d1ed4bd37af81U, 0x3db362b8bbcd4bb6U, 0xbd54bd2d3d39cfccU,
  0xbc6bf9fabd6d0b60U, 0x3d8af59b3dab9682U, 0xbd9dbafd3cb3e707U, 0x3c8192753b5341b1U,
  0xbd203b8bbd7a394cU, 0x3dac0b11bcd11e29U, 0x3dbefca93d9099a7U, 0xbbe2b97d3cd2714cU,
  0x3d163591b7a79bf7U, 0xbd6c3e0f3d547d40U, 0xbd360c6c3dac3074U, 0xbd99cfcd3da618deU,
  0xbc818371bdc1a2b2U, 0xbcb74845bc0ce19fU, 0x3d59c864bd72dd88U, 0xbd9a9365bd4cd7f8U,
  0x3c7bf4c53d031cc7U, 0xbd489268bd75a7cfU, 0x3cb123b23c92e00fU, 0x3bcabd9c3c7e0df4U,
  0xbd06c837bd8c5975U, 0x3d2f64b8bdd33421U, 0xbd00928dbd61be55U, 0x3d56f5f33d968c94U,
  0x3dcc95ab3d1d65adU, 0xbd7c1fc33b86e723U, 0x3d7843493d57d7d5U, 0xbd8a3c343cd24f51U,
  0x3d3dcdad3c9165b8U, 0x3d6e45e3bd78ce25U, 0x3c249d273d915cf1U, 0x3d8398233d6f872fU,
  0x3d0919b9bb8e0b8dU, 0xbd48d91ebd8dd15bU, 0xbd2ad98b3d16cddbU, 0xbd94f670bdcb49d0U,
  0x3d1cb6103c1e0720U, 0xbd6c1713bd92067cU, 0xbcb86f1ebc245f96U, 0xbc656eb9bd4722afU,
  0x3cd22849bd448a20U, 0xbd304fb1bd8cf160U, 0x3d7d00e83dcd55eaU, 0x3c39958abd9f304dU,
  0x3da9ece8bd439e1fU, 0x3aff3d803d638470U, 0x3c668eb7bd82717fU, 0x3bfd3e993d61b7c2U,
  0x3d04acff3d2ef053U, 0xbd84113c3dc4453bU, 0xbd68d8b9bd5b7d4bU, 0xbcaaeadf3dcfaad7U,
  0xbd0959cd3dae45d8U, 0x3c73bead3d145b40U, 0x3d19ccd0bd1c68c5U, 0xbd915681bd9252e7U,
  0x3d5941bfbd846043U, 0xbc761d753d33fbd4U, 0xbd2a43c63d5c374aU, 0x3d8303cd3d885de6U,
  0xbd864701bd17f2f4U, 0xbd7083b5bd560deaU, 0x3dd8bdfdbda1bfe3U, 0x3bf06f013d9682f8U,
  0xbc7bbd5cbd5caee1U, 0xbd4bf1963d8ee87dU, 0x3d40feff3da45e99U, 0x3d8ef66d3df2c2ecU,
  0x3e01bdba3cad1b60U, 0xbd474d6d3c9e02f2U, 0xbd1b0b54bd6cd376U, 0x3d99af1bbd91cda6U,
  0x3bac6a58bd61abecU, 0x3d026d173db90d7cU, 0x3c007553bd8f259aU, 0xbd95ca3f3d72d39dU,
  0x3d7361543d5fa8b1U, 0xbd950125bd5ed721U, 0xbcec4c96bc9dbfb5U, 0x3d8fcbf7bd00bb84U,
  0xbd523ed23db12662U, 0xbd9303e83cefe2deU, 0x3c44ad253dce7c5cU, 0x3d672a343d6d9eaeU,
  0xbb2fd85fbd61c3e4U, 0x3cde020fbd073f7bU, 0xbd4c4988bda6af63U, 0x3a15a1d1387d15e8U,
  0x3c7258e43cc683deU, 0x3d1bc0d13cd16405U, 0xbdc22cc93de817e4U, 0xbd86617abcc2e117U,
  0x3db213d33d6e9e1eU, 0xbd12b9e03d4c88c9U, 0xbd2423b0bdbc6ea6U, 0xbd2a1928bd33d851U,
  0xbe0a8fffbd0f8b05U, 0x3c1c4a1c3cb82db9U, 0x3d62f4193d0cbdd3U, 0xbd80128b3d56755aU,
  0xbd1e5c593c5e249dU, 0x3c9992ffbcccfe4fU, 0xbd299de13d1d25efU, 0x3daac3c43d8e4e46U,
  0xbcb52fe63cb5f450U, 0x3d80c42a3da6e1e8U, 0xbd421184bcb92c4aU, 0xbd9581f03bb2981fU,
  0xbcf3343c3dab02e2U, 0xbc157bcabd345c0fU, 0xbdd72929bc604a79U, 0x3c1d5b33bd866573U,
  0x3d61a555bcab0a5dU, 0x3d5e70c73d936534U, 0x3d9c196b3cfa6c55U, 0x3ce667873d1a564dU,
  0x3d300fdabd3d1a41U, 0xbabe38dfbd46b4a8U, 0x3b4cf17fbc92c790U, 0xbc42c90f3d1c5ed7U,
  0x3d16ba7a3d8c6f94U, 0xbd1f5d4dbd0e1334U, 0x3d83151b3ce6c102U, 0x3d5994653c8bab89U,
  0xbd4f55a5bc138d2fU, 0x3d9a26f23dbac27fU, 0xbd85e818bd91a2e9U, 0xbd2780893d3e1c23U,
  0xbdcbdb23bc9e29e2U, 0x3d4134323c027e3bU, 0xbafcf8253cc428c1U, 0x3c6632573ae16585U,
  0xbd869f18bcf3d246U, 0x3d38334bbb68c288U, 0xbd8a9d893992058aU, 0x3d841f8cbd97fb90U,
  0xbc9644fc3d301b8fU, 0xbd358339bcc51a59U, 0xbdb304b0bb85903eU, 0xba24a1953d20274eU,
  0xbd05b9283d19b445U, 0x3d932e0cbc6ae7ddU, 0x3d24b013bd4d2dbeU, 0xbaace20d3cc3c2aeU,
  0xbd918f0c3cf4b1a2U, 0x3cbfbedebd635bfaU, 0xbd549abc3cd640aeU, 0xbd5e56cc3d5806a2U,
  0xbd5f9ffbbd77f027U, 0x3c9af8dcbd01efc8U, 0xbd8373c43d852150U, 0x3d16c7123cafe276U,
  0xbd3b3c7b3c8d6238U, 0x3d9faa123daf37aaU, 0x3bb274ebbca227dcU, 0x3d7d837e3d872be2U,
  0x3d2dc0e4bcbc643aU, 0x3cfca46bbc57ce1dU, 0xbd6a611cbb802afdU, 0x3d66ef48bae780e6U,
  0xbba1f269bd8445d8U, 0x3d6954e8bbf156a3U, 0xbd020304bcf2ba46U, 0x3d99f4aabc1e7b8dU,
  0xbd6be7343b33d7f5U, 0x3dad8ea33b1f5989U, 0x3d9cc0d5bcf8d1b5U, 0xbd1096653dbefdcfU,
  0x3d6e5e3e3daa97e5U, 0x3ccbae52bd4efcacU, 0xbcd9e77dbd997871U, 0x3db6e242bd286d8dU,
  0x3ca3d8ce3b69bdf3U, 0x3d8c8bc9bd1d7e33U, 0x3d2ea7d1bdb01ab9U, 0xbd26776abd3f6436U,
  0x3d0f10963d0cc7d7U, 0xbcb7c2263d1124c0U, 0xbd21f34bbd86ba32U, 0xbb90671e39ae39beU,
  0x3d33fa22bd273522U, 0xbd8fae9d3d65c246U, 0xbd36070ebdb97f5cU, 0x3d38bf173d420d94U,
  0xbd2e7ccd3b5e01c4U, 0x3c3e11ab3c77e34bU, 0xbcac286dbd3474f9U, 0x3d44358abd6c7a42U,
  0x3d214d2c3a12fdc1U, 0xbd822bc6bda4ac55U, 0xbd3666bd3ce9e8b5U, 0xbd133d25bc885adfU,
  0xbc27fb19bd61a1b2U, 0x3d7002b53c9fc8f2U, 0xbcf3d2aabdb016faU, 0xbc1c3071bc970acbU,
  0x3ce948f9bd62f5f5U, 0xbd72e517bd83d1f1U, 0x3c350c893d8b57afU, 0xbca67ce2bda1a472U,
  0x3d1da7db3d3bd156U, 0x3b8ae87fbd9e7408U, 0x3d9445afbd931d46U, 0xbd215a86bc89ee99U,
  0x3d1418aabd2af157U, 0x3d8f6fc1bde7c888U, 0x3c0a20713d71688bU, 0xbc5f106ebd9364b6U,
  0xbd4370483d3ed468U, 0x3da77a143ca8c3c4U, 0x3bfa55853d0a72c4U, 0xbdc86faa3b999e05U,
  0xbd2bf23f3d2b04ffU, 0xbdae23a73bf800f0U, 0xbc957b98bd672f02U, 0x3d369857bd0e584eU,
  0xbd373661bd164f70U, 0x3cc06972bd1d45f5U, 0x3d3c46a7bda34aeaU, 0x3cc7d9543c3e38b0U,
  0xbd65176abd156740U, 0x3d8ac7a6bdc75440U, 0xbd306c543d4c5519U, 0x3c718b503d42c392U,
  0x3d67606b3ad16d94U, 0xbd94ded1bcc413a6U, 0xbd2c76783b1cf9afU, 0x3d559716bcd1e167U,
  0xbd014d573da4d688U, 0x3d8b0ff5bd94f5ffU, 0x3d7a861a3d3ca98dU, 0x3d3828bdbd8d4ddcU,
  0xbda8f4bfbd60ae15U, 0x3cd191833d9938c2U, 0x3d73a99fbce77210U, 0x3d67a9f53d548701U,
  0x3daebe343c477c1fU, 0x373888da3d85da99U, 0x3d7f64bfbd4f9224U, 0x3c63d1b3bcc4d904U,
  0xbb6b20a7bd933e56U, 0x3da6b11dbd3580deU, 0xbc78776c3cd19a2fU, 0xbb64b58ebdb35537U,
  0x3db4dcae3c012051U, 0xbc026a0a3c8013ddU, 0xbd1376123d489df5U, 0xbc1cb3f4bd5680a9U,
  0x3d4194ff3b92d239U, 0x3d66e01abd85e0a4U, 0xbce579313bdf8d9dU, 0x3c8f5d633d355165U,
  0x3db641a03d2eb5aaU, 0x3d8ab51fbd1b21a3U, 0xbd81becebd06d46dU, 0x3d10dffbbda8387fU,
  0x3d4cd0263ca0247fU, 0x3ce69674bd744e27U, 0x3c3df4f7bd83f414U, 0x3d938b373d858139U,
  0xbc3c778a3c8b114cU, 0xbd80a58abd1b46c9U, 0x3d686324bccd77f0U, 0xbda6ac43bd2b589cU,
  0xbc9fdde13c709eabU, 0x3d92e5de3d8cac76U, 0xbda29869bd5e93b6U, 0x3cf75f983d75ed1eU,
  0x3d5dfb00bcee7901U, 0xbd273a6bbdbe47dcU, 0xbd547ad33d5eb79fU, 0xbcccfe593b02f796U,
  0x3cfaf0123d89f0a8U, 0xbc5fed41bd61885aU, 0x3a247a6b3dbead4cU, 0xbd864e97bc3c6d1cU,
  0xbdab01f4bd7dcb11U, 0xbc011abebcb1cb25U, 0x3b50bd153d5b4e53U, 0xbc79cd8ebc914028U,
  0x3c775f6dbb5528adU, 0x3d6404bc3c9138b1U, 0xbcfb1025bd1e0c32U, 0x3ceef6af3da54c9bU,
  0x3da2efde3d3e4fc7U, 0x3d0a7cf63c81840dU, 0x3d84d8b63ca723e1U, 0x3bb5e8933d009923U,
  0xbd8779e93d88e89bU, 0x3db37838bd893e65U, 0x3c892483bd4bea54U, 0xbd4636503cf9b5fbU,
  0x3d21b0f73d4b34a8U, 0x3da6552abce96eecU, 0x3dc2c1c3bd867494U, 0xbcce26bebd57b591U,
  0xbd79e0a63d8f20a7U, 0xbca66a8d3c914696U, 0xbd89d6783d8ded68U, 0x3d2e427b3d25addbU,
  0xbda9e4013db45ae8U, 0x3c1d03fdbd774e2fU, 0x3c3b52aa3d413264U, 0x3d3ceed9bcf2bfcbU,
  0xbd8b926abd240269U, 0xbc2fb2293d4e3952U, 0x3cdf6a32bca930e0U, 0x3d68ef43baacefd6U,
  0x3d458ec3bd103e3fU, 0x3d19e367bcd9759aU, 0x3dd5ea82bda65309U, 0xbd61b68ebdb5fd7fU,
  0xbda83c42b9a918eaU, 0x3d5d635abd8819a6U, 0xbbc3080b3d4361e0U, 0xbd982ede3babe00cU,
  0xbd38ec163d7e48ebU, 0x3d68edb4bc8e4b0dU, 0x3ca5e5bd3cbd8c7dU, 0xbd18ecb63d836cfdU,
  0x3b12b54dbd03f8f9U, 0xbd81d86d3dc7f8d6U, 0xbd395d8f3d4345ccU, 0x3d6b2951bb41ac2fU,
  0xbd8c1ca339e837dcU, 0xbcd631a0bd3d5a64U, 0xbbd34d11bb30bcc7U, 0xbc800494bca262b5U,
  0x3c4a8b2b3d22cb74U, 0x3d50f30ebaa93fa7U, 0xbda6d9c83da12aabU, 0x3a5cdd62bd3f70bdU,
  0xbd32b692bda3233bU, 0x3d968d18bd8527e5U, 0x3d6a36353d17a45cU, 0xbdc8a624bd5e0ed1U,
  0xbc357738bd342bd7U, 0xbd66099fbd085c67U, 0x3cc59ca9bca388deU, 0x3ce2dbdbbd20fa53U,
  0x3dab6bda3d352cfdU, 0xbd1f6038bc1c302bU, 0xbcfce3b33d4a49afU, 0xbd23e55e3d6aa0b4U,
  0x3d12fca3bc747de0U, 0xbd33206abc6898a3U, 0x3b29c5503c97ade2U, 0x3d447f47bd3c7584U,
  0x3dec9cf83dbb5470U, 0x3d3519003c7b0af6U, 0xbc82c044bda52996U, 0xbd17dd4f3d360ce1U,
  0x3dc98c10bd984925U, 0xbd662a9a3d492309U, 0xbd22b5f23d647347U, 0xbd599cca3dce4303U,
  0xbd24e77d3d07f804U, 0xbc9222553c7c8452U, 0x3d758581bd476873U, 0x3b06feaebd48048fU,
  0xbd4128d5bd72b8edU, 0x3b272e053d20271fU, 0x3d49768fbd70322cU, 0xbd4c5546bdb47ac9U,
  0x3b346cd2bdc93570U, 0xbc334fa03c2dd62cU, 0x3ce5a272bd9976a0U, 0x3c4260f9bd03d90fU,
  0x3d166773bd8418d6U, 0xbd7fc6553babc270U, 0x3c8d055e3cfbf0cfU, 0x3d0108183d8724faU,
  0x3dc77b873d9a8647U, 0x3c092e09bd7f1befU, 0x3d19a6c9bcdc9e7cU, 0xbc49c8c3bc98095aU,
  0x3c0b81c03d2ae460U, 0xbd1974213d74de62U, 0xbdabfc7cbc65ee9cU, 0xbc389bc7bd9af2c8U,
  0x3d430f453d2654c3U, 0x3d81daf3bcf32cc8U, 0xbd36d48bbca9546dU, 0x3d4a7e7a3c509a14U,
  0xb9a61cafbceba3f2U, 0xbc1ee749bd5795ecU, 0xbc0955dabdd3f46fU, 0x3bf9a613bc995fcfU,
  0x3d0f612c3d860af5U, 0xbbf5f18fbdb1a4b5U, 0xbbce9bdb3c60bd0aU, 0xbd910481bcf325f0U,
  0x3d0123e23d4743f6U, 0xbd788bad3d83329cU, 0xbcab8f28bd90b5f6U, 0x3d134723bd0e5909U,
  0x3d231c173d7a712aU, 0x3d9f8661bd8ba64aU, 0x3d1c16a83d8f2a78U, 0x3d1ec1123da5335cU,
  0x3c2b614ebd1f0331U, 0xbc31ad243c4e193cU, 0xbd1ca044bc210b76U, 0xbd120c06bd401675U,
  0x3c29d198bd06c310U, 0xbd0ed0bc3dc4abbcU, 0xbd5131553d06cdfeU, 0xbd666e883a926425U,
  0xbdb90c863c30023fU, 0x3c8da32c3da78f90U, 0xbc4d87783c1465bbU, 0xbcc909553db7a9c4U,
  0xbd8f27683d5a688bU, 0xbd4162a53d909d55U, 0xbc89122abd3e74b7U, 0xbcb5733b3d151ce6U,
  0x3c6d1783bd316befU, 0x3d76d95abd3c4e9eU, 0x3d0586e7bd0807b8U, 0x3d8a9b013d10e259U,
  0x3cf7d4913c34d100U, 0xbd2229a3bcefe7d5U, 0xbc08b65f3c41a60aU, 0xbdaa166fbd60a88aU,
  0xbd8772dfbb20c2a2U, 0x3deaa3c93d9a0fb2U, 0x3d564152bc6ebe27U, 0xbd039303bd36f823U,
  0xbcd97381bcdc25d4U, 0x3ce9bc243d9c50e5U, 0x3cdb4e453d734938U, 0xbdbb0d95bd5cf0ffU,
  0x3d65ed20bc9816b4U, 0x3dad32cebd6c1ba4U, 0x3d9095a73c3e50ffU, 0x3d6b5747bc1453efU,
  0xbd2e309abbd1e4d9U, 0x3ca0fde23d0fad5eU, 0x3cc04f4ebda6012aU, 0x3d6e36173cfd8969U,
  0xbd9ac8533d9b1b72U, 0x3cb81c28bd36831cU, 0xbd909093bc8e8845U, 0xbd86d7cc3d85351bU,
  0x3d2a36153be9bad2U, 0xbd4dad43bc9636cfU, 0x3cfd20d0bd4c892dU, 0xbdb6743abd8afeb0U,
  0x3d0d06263da446acU, 0xbd06a0563d23657aU, 0xbdaa4e473ca3d103U, 0x3d9726da3d269555U,
  0xbd821d6d3daab47dU, 0x3da462c93d9b900cU, 0x3c80f4f9bce0fbf9U, 0xbda499dd3d1b96b5U,
  0xbda86d673d28ccceU, 0xbd6f4590bc91c7cbU, 0xbc5ded20bcb387aeU, 0x3d1b719bbda55bdbU,
  0xbb45f38a3d011e68U, 0x3d56a6df3d0d4298U, 0x3c9581c1bc369995U, 0xbd3bc21c3cba16a7U,
  0x3d327a073c12453dU, 0x3da6fb86bd81671fU, 0xbbe78cc5bc902bd0U, 0x3d5a86e0bbfb8800U,
  0xbdbed37c3d40e7f8U, 0xbcb8b5673d15ac90U, 0x390876bcbdbd3505U, 0x39dcdb8f390e0b61U,
  0x3caaf4fe3d9281aaU, 0xbd1dce88bd710d93U, 0x3d25bf94bce94561U, 0x3cd2b5bebdb1a5e8U,
  0xbcd54cc33c8239c2U, 0xbd9513323c9eddabU, 0x3db3a28abd6428fcU, 0xbcefd6ab3d98293fU,
  0x3dbc41913d5b6e27U, 0xbce0d1db3cbc9cc4U, 0xbcf2ed50bd82ca7cU, 0x3c476b3c3c3d485dU,
  0xbd88a1e6bce47f9eU, 0xbd8afb86bdac6bbbU, 0x3db3ab70bd271667U, 0xbd822a773d436a79U,
  0xbd2376aa3d4811feU, 0x3d439d493d7b6976U, 0x3dab30d73d6f15c7U, 0x3d6a27053db64daaU,
  0x3c3fd714bd1853fdU, 0xbd8c7beb3d0e9b6bU, 0x3d100f433dbc8dcfU, 0xbd93c425bc89c0daU,
  0xbcbbc3873d840623U, 0x3d576dcabb549c30U, 0x3d936874bd9fa284U, 0x3cb7fc803d0cc889U,
  0xbd3777d5bd89c067U, 0xbd1c3ea63d49a23bU, 0xbd1e5ea03cd053bfU, 0xbdb26a66bd94f4b9U,
  0x3dc09e5d3da3a213U, 0x3d3bb0c7bda5e5a8U, 0x3bccae17bd87c9edU, 0xbcd1b1a13c0ea83cU,
  0x3ce20cec3d72e6d8U, 0xbc850817bd8a1227U, 0xbd35576cba947e88U, 0x3b13d9323c22c476U,
  0xbd5bd0f5bd7164c7U, 0xbd758c313d368b89U, 0x3c1ff72d3d42e784U, 0xbd7c0c21bd31823dU,
  0xbd0c05a8bcd652c5U, 0xbcc47246bbbae2f7U, 0x3db0afc6bc3e0c43U, 0xbd5b907cbd64b523U,
  0xbd2fa6b1bd1af7e8U, 0xbbe769b13dbe0674U, 0xbcb68b9dbd682d1eU, 0xbd9c091b3d474c59U,
  0x3d830af23bf77a88U, 0x3d5513a13c85839dU, 0xbd8bcd60bd42c59dU, 0xbc2b75f8bc41a63bU,
  0x3cf4244bbd80d907U, 0x3d67d175bd8b657dU, 0xbd322f893d4d2a9bU, 0x3d3bb9aabda51d6bU,
  0xbd3ef860bd90ce22U, 0xbd694e8f3d7099caU, 0x3cd1f421bc69985aU, 0xbd57fdcf3c9b2b39U,
  0xbda8c5bb3d6f7f57U, 0x3c854535bc08b4deU, 0xbcbb8835bd572bfbU, 0x3d35f2ba3c89a3e6U,
  0x3d02bd0d3d1a97f4U, 0xbd78d1673d6054d8U, 0xbb9d4ea43d5f3803U, 0xbd7eacd13d298016U,
  0xbd0b198d3d642dbfU, 0xbaa88495bd5aeb0dU, 0x3d08d0a5bc9a206bU, 0xbd81f46f3d04ccdfU,
  0xbc23b7ab3c7b981cU, 0xbba0bd5a3d0d4a80U, 0xbd2768f13d450e20U, 0x3de98be53da10ff5U,
  0x3af32f3c3c1e05fcU, 0xbdc022743dc2df97U, 0x3d85bae6bca3b972U, 0xbd9ff1093d1093e6U,
  0xbd96ed0fbc4ee43bU, 0x3d8d26ccbc80bb14U, 0x3bcd47653d56f405U, 0xbd28c3383d9ec444U,
  0x3d4ebd82bd7a62acU, 0xbdc4385e3d8dc4deU, 0x3d68ab9bbdb3b03bU, 0x3da771b83d78f382U,
  0xb9942c313de0fe0fU, 0xbd48c8e23d3270baU, 0xbcdcd490bda69035U, 0xbb75e38cbb6c5fd6U,
  0xbc9eb6a43d2339c6U, 0xbd18198a3b250e64U, 0xbd8379573c2df252U, 0xbd52b6f2bc2cfc14U,
  0xbce1a2cabd2eb299U, 0xbd779f87bd2a8b60U, 0xbd2dcb1ebd939f44U, 0xba34d0a4bd6dc440U,
  0xbd34cde3bd4828faU, 0xbd85b6e73dc863d0U, 0xbd63b88cbd886b4cU, 0xbd5fc43cbd9fbbd0U,
  0x3d110d903d9f641eU, 0xbb58c4633d821639U, 0xbd5330b93d4482a3U, 0xbd4ac7633cf4aebfU,
  0xbd3de5bebd0c7019U, 0x3c9ed9513d0374bbU, 0xbce543943ad0c28dU, 0x3d805fe33c35cf62U,
  0xbd0836cd3da410feU, 0xbd717a76bb55a409U, 0xbb52c6f7bd50c6e2U, 0xbcd0be343d093a21U,
  0xbd6ac952bd086df6U, 0x3d452a303d96f7b9U, 0xbd6fd5383c48b259U, 0xbca71da83d102be3U,
  0x3cdccfb03d43856eU, 0x3d0471d9bb5a2b36U, 0x3d8045723ce1123fU, 0x3db574bfbd69b8cdU,
  0x3b48b3743cd28fb3U, 0xbc82f95abd34e0e4U, 0x3cf91ac8bd46d62dU, 0x3d582c2a3d91f51aU,
  0x3d1a98b13d7c2848U, 0x3c87820dbd864523U, 0xbbcc11d1bbd7ccd6U, 0x3db328d5bd889d96U,
  0x3bfaee5c3d8acac3U, 0x3d6a9dd43dd5d017U, 0xbd5a80e53cab3b1dU, 0xbd6df7a23c253d82U,
  0x3c3bc3873cfa2e26U, 0xbc8dec273db43e68U, 0xbc8028e33d0979d8U, 0xbd1aa4613c7d4230U,
  0xbda3cbd1bcd6851dU, 0x3bd2159f3dcac364U, 0xbd7c55ff3b31c86aU, 0x3d6a57473d3205e7U,
  0xbc8298983d9bd005U, 0xbd878755bd9bd976U, 0xbd141a6fbd107aa1U, 0xbc66e3bf3d6838b1U,
  0xbd9739cabce9a134U, 0x3d2e0675bbd7f24cU, 0x3cc0b4553d915fbfU, 0x3c956f9abc2b1b4bU,
  0xbb7ae8903cf76364U, 0x3d649928bda2c54bU, 0xbd091dd6bd3b9fbdU, 0xbd8c899d3d496f0cU,
  0xba88fb0abd159038U, 0x3d71a8ea3c12a9caU, 0x3d4d8088bd28a884U, 0xbc429af8bdafa3e1U,
  0x3d9147ab3db655d7U, 0xbd920fb53d91799dU, 0xbca74d16bd5f2f58U, 0x3d19bb0c3d857466U,
  0x3c96322a3d756e5fU, 0x3e06c5d6bd4071a3U, 0xbcb31562bd840ca3U, 0xbc747a95bd62764dU,
  0xbd76c229bd5f36d8U, 0xbda177fabd693e8fU, 0xbda17cf23d3fd3deU, 0x3d077e7d3ca417e4U,
  0x3c7ccdbd3da926b5U, 0x3d90d2b4bceb66e3U, 0xbd8c4e773cd6c857U, 0x3d5490f2bd90c9f2U,
  0xbd536d27bc827cddU, 0xbd61b93b3d0fbe56U, 0x3d6ecedf3d416b29U, 0xbc7ee0823d6394fcU,
  0x3d4783003c857a2aU, 0xbc885cf4bdaa869aU, 0xbc9f6c953d01d1eaU, 0xbd67656bbcf4dcf6U,
  0x3d700a933d498e5aU, 0x3d961d793d9d0987U, 0xbd309f213cdd354dU, 0x3c892afdbcfccdf5U,
  0x3d42b20f3d7244d7U, 0x3e06727cbd794692U, 0xbd4a7ebbbda3c7a4U, 0x3d4acdfbbd0aa4b6U,
  0x3caa94c03d0693a4U, 0x3d4ed4893d9f2990U, 0x3bbbdc9dbd430017U, 0x3c8b4fd7bd3981b0U,
  0x3dd9ae53bd830b0dU, 0xbd8307c9bdbc1cb6U, 0xbb1b4cd7bc0c97ebU, 0xbd9e2349bc8e129aU,
  0x3d43166abd9af8deU, 0x3d68d75fbd59be89U, 0x3d2147ba3c9a2168U, 0xbdcc2b813d26cd77U,
  0x3c87a00c3c811340U, 0x3d0eb0453d366cd5U, 0x3d4deb76bd6a7359U, 0xbd92a80f3cab6481U,
  0x3bd9095c3d08b34cU, 0x3d8c3c84bd3100ecU, 0x3c555856bd2eebcaU, 0xbcbfd0ac3cc1f502U,
  0xbbaf8384bbb8856eU, 0x3dd2ba5abd4f4a34U, 0xbd59266d3c6100cdU, 0x3c238c8f3d28830cU,
  0xbcb8d4743d0fc16dU, 0x3d793f533db5e824U, 0x3da8c91abc90862cU, 0xbc8c4495bdb34ccfU,
  0x3c24865f3d4aae40U, 0x3cc2d4febcb84e85U, 0xbc2ff28abc9f6554U, 0x3d9b5f583bb34a39U,
  0xbd09f0213dd7bfe1U, 0xbc8c8ffc3c113e1aU, 0x3d028d5ebb6f2a76U, 0xbd854a3b3d29a51bU,
  0xbd4c194dbcd7fcafU, 0x3d5d01c53d8cff89U, 0x3d41ac503d3f8ccdU, 0x3d842eea3dc61fa6U,
  0x3d2d154a3e1c8d1aU, 0xbd13c84bba76064bU, 0x3d3098b23b8c240fU, 0x3ccb60263d513517U,
  0x3c2c0f4d3c235c5dU, 0x3de9395dbd1a1a14U, 0xbd618933bd259d4cU, 0xbd0fb899bd26c522U,
  0xbd9c7a353d1c1756U, 0x3d6632803dab3c32U, 0xbd652febbd988b0eU, 0xbb92ce063c8e8099U,
  0xbdb7b04abc8e90c0U, 0xbd8512a1bcfc980fU, 0x3c4f299e3b423dcdU, 0x3c8d2f203d3565daU,
  0x3a29a86c3da6b10cU, 0xbc859f0e3d9af3bcU, 0x3cea69fc3ab7cee7U, 0xbd9d73b73d1f11f5U,
  0x3b2030f63c6cd247U, 0x3c664d643da79d93U, 0x3ca552cd3d91061eU, 0x3d4585b93cde407eU,
  0xbb535023bd26cf4bU, 0xbcbb5838bd5afb3cU, 0x3d034a00bdaa606eU, 0xbc2aa65f3d237447U,
  0x3d95a953bcdf55ebU, 0xbdb720ae3d34ce24U, 0xbd6023b5bd860e73U, 0x3d56f9193d922a9aU,
  0x3d0899c5bd7ca4c0U, 0xbc82f9363d79a120U, 0x3d36a099bd7dc29cU, 0xbdaa43623d9016ecU,
  0xbc33f24abcc9a044U, 0x3c9caf2f3d7dd5e3U, 0x3d160d84bd05187dU, 0x3d9bdbb9bdcd318fU,
  0xbbecccf2bc8f2bd4U, 0x3dde09703cd0afb5U, 0xbcf715edbd8fffd7U, 0xbd5b6eac3c9bd302U,
  0x3c1f3f13bbe6caccU, 0xbcd1743cbd0818adU, 0x3cd2a21d3c6a30d4U, 0x3d3e429ebc782c06U,
  0xbd5b2957bce2090eU, 0x3d8c8d523d343b26U, 0xbd049dc4bd95beaeU, 0x3db208783c5619e0U,
  0xbd9e89343dc27853U, 0xbd10516d3daf143eU, 0xba4737003c9d052aU, 0x3cd6123fbd9f098dU,
  0x3c72e1393d5bb175U, 0x3d63163d3c0f7f64U, 0xbca042f6bd4ca3beU, 0xbd82c6fa3b32d7b3U,
  0xbce88ccabd7d53b8U, 0xbd4cb8c9bbc0186eU, 0x3d6c0dc4bd9eb1e1U, 0xbd9cae013dbbb4acU,
  0x3c5eb438bd6fc4b9U, 0xbd206ecfbb3e1e69U, 0xbcfecbdd3cf0130bU, 0xbd9fe9cbbcfd1bd5U,
  0x3d14456dbbeedf2bU, 0x3d730ea2bca011a0U, 0x3d7ef945bd17f3c1U, 0xbd4faf913db0859cU,
  0xbd67c8783d9e96c4U, 0x3ca78fdf3d974483U, 0x3db82ba3bdc254f1U, 0xbd96a8853d850da0U,
  0x3d6e20733b18e6ecU, 0x3dbf5e6cbd4de15fU, 0xbd9b2f23bd3a52edU, 0x3c536dd53da27fb4U,
  0x3c2dd01cbbf78c53U, 0xbd75d447bde99df3U, 0xbb84a2713c0a1593U, 0xbd9ec067bd037e93U,
  0xbd853cccbd83b846U, 0x3d807d48bd84035eU, 0xbd9721733c41d4b9U, 0xbca7563f3d658862U,
  0xbdecf37f3d709818U, 0xbc2bc62dbd3f592dU, 0x3d4aab10bd205bd5U, 0xbd8d0a3bbd8c36b6U,
  0xbcd3a7763d02272fU, 0xbc8d8a123c38b67bU, 0x3d2eab59bc313b64U, 0xbd83fe413aa65270U,
  0xbda17e603d24b1d6U, 0xbd8ddc5cbd9aaa0fU, 0x3c531c4abdc3da62U, 0xbc58cbb23c6a8eaaU,
  0x3d711aacbda50500U, 0x3daa0d843d590d01U, 0x3d9e8a473d157db0U, 0xbca581c13dbc269aU,
  0xbc2b6f19bbd7a3c0U, 0x3d938c4fbdc18449U, 0x3d62a800bdce6f66U, 0x3d106598bcd29341U,
  0xbd17018f3db1d2c8U, 0xbd9696ca3d97b8ebU, 0xbdb2551abd31d58bU, 0xbc335f43bd85246dU,
  0xbca85f813d5e1253U, 0x3d9aed17bd659962U, 0x3ceaca4cbddfc144U, 0xbdac50e2bd951437U,
  0xbdb35d743cda4ab2U, 0xbc2f08f3bc336121U, 0xbc1002833d323011U, 0xbda922aabcce5dedU,
  0xbe0e52bdbd44691dU, 0x3d9164b2bded3f3bU, 0x3d2c2f7cbc6df95eU, 0xbd67d5a3bab8fcefU,
  0xbd640f7d3b1520efU, 0xbcccdb4a3d0e85ebU, 0xbd2724debc4a2eefU, 0x3d00e968bd658851U,
  0xbd27e322bd9cac6dU, 0x3d1784a63dbc35f7U, 0x3c4bcaa53c732ab2U, 0xbc2ea358bd749a71U,
  0x3d1ec9903ce252cbU, 0xbcc76107bdcd2bf0U, 0x3db37452bccab5c0U, 0x3c57171ebce5ab7fU,
  0x3c311aafbc01d2abU, 0xbca6c4523c545e49U, 0xbcc692afbd9f8158U, 0xbd86415b3d4996aeU,
  0xbc2cdd9ebd8b2270U, 0x3d2331eebd454701U, 0x3acfd5743dab0f45U, 0x3d53fc21bd077fb5U,
  0x3c9283c3bdbd3d0eU, 0xbc02e3b23c184a2aU, 0xbd668fa03da102e7U, 0xbdb34e93bcf648d8U,
  0x3d9802743be95c13U, 0xbdb39b213d9b4250U, 0xbbeae59e3cb9b333U, 0x3d388c4fbd7a3aeaU,
  0xbda20fa9bd90ba4bU, 0x3d588c08bd830ed2U, 0x3d703b29bd659fc7U, 0xbd9f72733d2d9580U,
  0x3d014b8cbd18ae49U, 0x3ad25b7dbd18b030U, 0x3d37d4bdbcfcdb5bU, 0xbd5b2fabbd25ed69U,
  0xbdb60b51bbd84b83U, 0xbd8ebcdf3da77597U, 0x3d8bce743d7a0540U, 0xbd970984bdaad9b3U,
  0x3b4320343d580d73U, 0x3c980e13bca6d2daU, 0x3de10fb83d76857cU, 0x3d67bf43bd08c37eU,
  0x3ca49c1b3d82762bU, 0x3d37c564bd464674U, 0x3b6ff1babd009bb7U, 0x3d9e62493c10b538U,
  0x3d2d6996bb00a138U, 0xbcc6ccb83cc63a9dU, 0x3d0c620a3ca20067U, 0xbd21e3463cda3855U,
  0x3c909b913d811d1cU, 0xbcf440483d9a52f8U, 0x3d6380843dc0432cU, 0xbd9dc6dfbd98c5c6U,
  0xbdc5690dbc566b36U, 0x3d5e59cbbd916aa4U, 0xbd88d1b43dbc54acU, 0x3da0d4c33c4ed1a5U,
  0xbd54ac913b946a30U, 0xbce71abf3c98c9feU, 0xbc90049e3d235fd1U, 0x3c49673d3ca64b77U,
  0xbcae45493d9c1fbeU, 0xbd8839ae3d737dbcU, 0xbc5d8fc33d6e3706U, 0xbc92f3373d868f2cU,
  0xbd87823d3d3989edU, 0x3d8f22cf3d1c919aU, 0xbd8b035c3c26d95cU, 0x3d9181183d8796b5U,
  0x3cba75143d01d034U, 0xbcf408b33c9782efU, 0x3da048c9bd1c1032U, 0x3d20ba213d3b85deU,
  0xbc96055b3c1c6e25U, 0xbd9211acbd8f3f61U, 0x3db4845fbb7055a4U, 0xbd7cfb103d1500f4U,
  0xbc81bc033c7db264U, 0x3d2b364cbccd7282U, 0x3c73207ebd4f0b8cU, 0xbdcdbaf7bafca642U,
  0x3c3ff1fd3d4a9a65U, 0x3ca9681ebd5ab226U, 0xbc2ec5213d774070U, 0x3d44a7243d76b1baU,
  0xbd957573bcce87fcU, 0xbd5a8cccba8cb430U, 0x3d7254c3bd206deaU, 0xbdb5d5413d23c2dfU,
  0x3ccec8ce3cc13733U, 0x3c957546bdcc841fU, 0x3d20ab3d3b1079b7U, 0xbd8e13d2bc8e738fU,
  0x3c9c7b17b9817c13U, 0xbd87f5973d2b53dfU, 0xbd840208bd0076bfU, 0x3d00f5013b980b35U,
  0x3ceb0c98bd72d5c3U, 0xbd43d1bfbbf3889bU, 0xbd67fcfebd2ddee7U, 0xbd8d70073d91eab4U,
  0xbb473b3cbd9843bbU, 0xbd1bddf8bcbdf17fU, 0xbc5971c4bc886cafU, 0xbcb83bfbbd837cb9U,
  0x3bb51dca3d27c737U, 0x3d470c0dbda6f9efU, 0x39fe0cfe3d930754U, 0xbc2f6033bda792dfU,
  0xbd540990bda0a3a0U, 0xbd941bcd3d97db43U, 0xbd6565e1bd8f2691U, 0x3c5f44403da398baU,
  0x3d85de553d8e06f5U, 0x3d14500f3c6da49aU, 0xbbf4e2acbd8d00feU, 0xbd9c7cebbcdb75e4U,
  0x3d793fa6bd6785ceU, 0xbd7add673d8072eeU, 0xbc8047843ae0b479U, 0xbd405dea3d9ea216U,
  0x3d632f85bd4fab1aU, 0xbda143943d6d1dbcU, 0x3d3b591d3c1db534U, 0xbdc132963ccdc16eU,
  0x3db07770bdab410cU, 0x3da23be6bd69eb28U, 0xbd1982a2bd77ac42U, 0xbb155bcebd035d2eU,
  0x3b9980bcbd3e2d48U, 0xbb92ea31bd4c7a9fU, 0xbcc98cf13d89c3a0U, 0xbdae20203c8c1367U,
  0xbd4132ea3d61f2b1U, 0x3d52fe2fbd3337b6U, 0xbd52f70b3bd78bbcU, 0x3d291e2b3d05d12dU,
  0x3c7faee6bd1f683eU, 0xbd0a69efbd02b75bU, 0x3d57d1283dcdbf8fU, 0x3d83d6963d13f47dU,
  0x3d81e0e1bcf85a93U, 0x3d995d8abd883ca9U, 0xbdb778c43d8ad81aU, 0xbd088cff3da45354U,
  0xbc74996ebd5403a4U, 0xbd66e4debdafaa54U, 0x3da32c11bc3acbe3U, 0xbd42b5263cbc97f2U,
  0xbc75b7f13d1ee0ceU, 0xbddaf713bd64f6aeU, 0x3d81ab78bd51660aU, 0x3d7348f73d9c10b0U,
  0xbcc5f43cbdc73570U, 0xbc653cbfbdd1e375U, 0xba9d5eb13d8ac4daU, 0xbd842f3cbdb4f4d9U,
  0xbd1df728bd956da5U, 0xbc0fbb69bc6c2f40U, 0x3db16cea3cbe92c4U, 0xbd1c60833d3b5638U,
  0x3d01a25bbced354aU, 0xbd714440bda81d86U, 0xbbb1f9bc3d77b96cU, 0x3d1d5721bcf449b1U,
  0xbd0262df3d592b4fU, 0x3d21a6c1bc81a816U, 0x3ba2140bbd4e25daU, 0xbd2a2aea3c027084U,
  0xbd399d4f3d1c4c36U, 0xbbbb2ac1bd8caa58U, 0x3d898b9c3d28a133U, 0x3c568e353d662b4fU,
  0x3b658155bd57df20U, 0x3d036e473c72e79fU, 0xbd924e16bc8b795bU, 0xbdbea1693d490fcdU,
  0x3d834efabdac5e40U, 0x3cbfb22bbd384f7eU, 0x3b74a2013d5279b2U, 0xbd7f62363c21bf06U,
  0x3cef092f3d085949U, 0xbc11f5003d8c4f43U, 0xbd8ecab43c3b15b7U, 0x3d2f12b63d0b52f1U,
  0x3c97de0dbc43d106U, 0xbc6879f73d890bfeU, 0x3daba074bd576d1dU, 0x3d85abb23d6d8c4dU,
  0x3d98e6c1bce240c9U, 0xbc0ed5513d03b9e0U, 0xbcc0d7d0bd3317e7U, 0x3d97a6fabc3aa1dbU,
  0x3bb5a5bb3d8db2e9U, 0x3ca3390dbd933ce9U, 0xbd25d974bd19d2a8U, 0x3c87985ebd2fa2b9U,
  0xbb9634803d357f25U, 0xbd089182bdb3f2e5U, 0xbd3cc5653be3a2bbU, 0x3d54102cbd4be69fU,
  0x3cc410fabbf52c8aU, 0x3b645fbbbd786787U, 0xbd127a353d4e511fU, 0x3cb3e8b3bd85a46cU,
  0x3dad34a7bda5de62U, 0x3add90eebd39cdacU, 0x3d82b6e2bdc21ec0U, 0xbd578382bc858169U,
  0x3d8d8154bbec968dU, 0x3d8ca841bd96be43U, 0xbbc06c713d1dd915U, 0xbd38002bbd860d98U,
  0xbd10c2c6bcb31185U, 0x3dbd3d04bcccf81dU, 0xbd7362f8bd3b047bU, 0x3d568ef53d20c442U,
  0x3d814f62bc26ef2eU, 0x3cf420c4bd164ec3U, 0xbcf284b03d94d0b8U, 0x3ce5b2a33cd2e181U,
  0x3d6225cfbdab9506U, 0xbd6e265dbd649da1U, 0x3d736e31bd0ff5e9U, 0xbda47711bc7fdfdbU,
  0xbb78deca3d9234d5U, 0xbd2aa4563d928fc7U, 0x3d7b73903c9b6f9fU, 0x3d5d4e20bceb2915U,
  0xbdbbd07b3cb27e42U, 0x3dbfb5283d94accdU, 0xbcfb099f3d8b8eebU, 0x3cb50e8abcf746c6U,
  0xbd53c87a3d943b51U, 0xbd35c9c93dd78469U, 0x3da46e80bd5d0155U, 0xbc0290b53d9a63d9U,
  0xbd70e0e3bdc01c5cU, 0xbcb06acabcadaa3cU, 0xbd0f1bf13c8affccU, 0x3ca193f33c9304b3U,
  0xbd99fed4bd609dffU, 0xbd25b0afbc2529e6U, 0xbda26c4c3ca690d6U, 0x3d045589bd0e61ebU,
  0xbbf8615bbd3b5847U, 0xbc39fcf83d72a206U, 0xbb981f9f3d7f72f3U, 0xbd4ab9d53cb31114U,
  0x3bdcf0bc3d1387aeU, 0x3d741515bd0e81bbU, 0x3bb23d50bd337bacU, 0x3daa5f1b3c860167U,
  0x3d5780c03ce2b03eU, 0xbd770c62bdaf3cf5U, 0xbd65e46bbccc8763U, 0x3c5dac13bdc212fbU,
  0xbd4d59923d408963U, 0x3d261a60bc99965fU, 0xbda238b5bc8a3240U, 0xbd0f0fd03bccc206U,
  0xbd17a0f83d12175eU, 0xbd20cf63bd43416cU, 0xbab5b1593cc8a88aU, 0x3d7157ddbda55aecU,
  0x3cd9e435bd055d45U, 0x3cc474333c59fe70U, 0xbcc648d3bd970233U, 0xbcfc99213d76bbe4U,
  0x3c9a1365bca6abddU, 0xbd91993d3d7ce43dU, 0xbd265ff23d9e39a3U, 0x3d9f04f7bda9ebd2U,
  0x3d0efcc33db39b59U, 0xbbf22713bd8511deU, 0x3ce6869abca989d4U, 0x3d75c3983c1e74d9U,
  0x3d3c33313d8824c1U, 0xbd9602f9bc4c0bb9U, 0x3cac3e3cbd914752U, 0x3cecb0423d01381cU,
  0xbd1c7a5c3d894870U, 0x3c460a5c3d086f85U, 0xbcbdd177bc65c8efU, 0x3ccf16c63d421e44U,
  0xbd48f5c93d98733aU, 0xbcc9db993c4e0b0aU, 0xbcad811cbd1d867eU, 0xbccc61363d43f85fU,
  0x3d9a14edbd6b400fU, 0x3d922b66bb8fb1a8U, 0xbda013ffbd9416cfU, 0x3d5d36e8bce6b42bU,
  0x3a7e60adbcbfef21U, 0xbdbc2697bd8b1919U, 0xbd6d65f7bc8ab323U, 0xbc769c1ebbc2d952U,
  0xbcfff279bd1d0000U, 0xbd09cd783d131762U, 0x3ce5021c3cc31246U, 0xbdb2b06fbda17122U,
  0x3d3a42c5bcee9e09U, 0xbdd18dc8bdb252afU, 0xbc98c9dc3942a7ecU, 0xba1c116b3d381174U,
  0xbd6f18e5bc8bf677U, 0xbc32dbc23d795abaU, 0x3cdb800f3d4f9787U, 0xbd284c433d9f5931U,
  0xbc9a47eebc89f862U, 0xbda5257f3bdb3bffU, 0x3c950b613d624184U, 0xbd8a922fbae79557U,
  0xbc8e4ad83c752394U, 0x3d29dd7a3d1b32f2U, 0xbd4655d33ce90e92U, 0xbd008de0bd3066d6U,
  0xbdd6c7a23ce20968U, 0xbbbbbc1b3d798c4bU, 0x3d4349d9bc5460faU, 0xbb5fd00d3c15d798U,
  0xbdc516f23db5dac6U, 0x3a8399a23d0df7d3U, 0xbd02f410bd8792fcU, 0x3d6f228f3da603d9U,
  0x3ceb3f7cbd02156fU, 0x3d02f002bc3ef0e8U, 0xbbad4af73d5179fbU, 0x3da13484bc6b592eU,
  0xbdc6e06abd4e047fU, 0x3d8992ec3daec062U, 0x3d8f662fbce0ddb4U, 0x3cf38f12bd5670c8U,
  0x3c88e06f3ccfa735U, 0x3d318d4ebd0c4f7aU, 0x3d84374f3d971f19U, 0x3c9b3e60bd48513fU,
  0x3c7da9343bcc1724U, 0xbd42e74cbcc40bafU, 0x3adda2b9bdc2a221U, 0x3d1f54b93c0c0621U,
  0x3dbf8f233c527822U, 0xbd84ba1d3cffc059U, 0xbd00e8033d45bff2U, 0xbceb5c02bd3d745eU,
  0xbd9fe7d1bcf82852U, 0xbd6042da3d8ec960U, 0x3db0ac35bd87c470U, 0x3d0d872d3c945831U,
  0x3d59ad3d3c61bf0fU, 0xbcf99642bd5361f8U, 0x3c949bb83bf410adU, 0x3cedd08bbd8549b2U,
  0x3d24df28bbd68ed0U, 0x3d858353bd4a5642U, 0x3db2b6e5bcd73088U, 0x3d938801bcc9fcc5U,
  0x3ce660093d75a683U, 0x3c645d7a3cb0285cU, 0xbd454936bd1db807U, 0x3d48d5573d72f05dU,
  0x3d3192073d0fca68U, 0x3cbfa50d3dc1e1e9U, 0xbdc2ffc63cdda9f0U, 0x3cfd9977bd8c2075U,
  0xbdfd09003d811851U, 0x3c9b4fd53d0549e5U, 0x3d9852a6bd845c44U, 0x3db414a5bdde04afU,
  0xbdf3e6b1bdcf8789U, 0x3da1e3a73beb99ffU, 0xbdeb31ffbd4bc112U, 0x3d484e82bd867c52U,
  0x3d28f955bd63c479U, 0xbd019e1e3c9b2f5eU, 0x3d25c9e73d09efecU, 0xbc639317bddb2f33U,
  0xbdc2085cbcfb7402U, 0x3d4dbd45bbaafd8aU, 0x3ccc4d53bd9035e4U, 0x3d727314bda09274U,
  0xbdaa2dea3d229af7U, 0xbcf97f5e3db6d2efU, 0x3d476579bdec3564U, 0x3b474812bdadf376U,
  0xbd89a0fabd4f2fdeU, 0xbd0073cdbcd61bcfU, 0x3c4b82de3d9be66eU, 0x3c91892f3daed520U,
  0x3c418524bc8df268U, 0xbd7401b33d498ee9U, 0x3d9fd57ebd81db97U, 0x3d3dda223a7efbe2U,
  0x3c4a44debd5eac23U, 0xbd219f4a3caf09a3U, 0xbcc5599dbc2b1609U, 0x3db36bdc3dace322U,
  0x3d34fe263d5cc049U, 0x3d999bb1bd7f0cb6U, 0xbcb3d34ebd76e1e9U, 0xbcce71b5bcbbc979U,
  0x3c356e4c3d6e1e9fU, 0x3c3514083b872191U, 0xbd9b01c8bd0e6353U, 0xbd7f86acbd847484U,
  0xbcbdbf37bbe93875U, 0x3d8155fdbae45297U, 0xbcda36ca3ce192d6U, 0x3d85bddfbd3b02d8U,
  0x3d7f9013bd9d2ebbU, 0x3c2303083c2348c5U, 0x3caf8fdfbd84e830U, 0x3d2c41533d8a33eeU,
  0x3d803aa13d45892cU, 0xbd8dad903d497370U, 0x3d088f6f3c0b74bcU, 0x3bf85fb4bd27fd64U,
  0x3d1bb83ebd8c6b79U, 0x3c8498b23da64cb9U, 0xbdb2b8c83da8c503U, 0xbcaee60bbd3c6163U,
  0x3d675b5d3daedd96U, 0xbdc1d6d03d973db8U, 0x3d9100393dd286deU, 0x3ca9ef123c3c916eU,
  0xbd0fc8763bb7c8a3U, 0x3d8066f3bc9adf53U, 0x3b80f6bb3d45f734U, 0x3c09a770bd929840U,
  0xbc3c8e4abcecc649U, 0x3cfeb96d3d1d1313U, 0xbd0bb9153ce78694U, 0xbd97df77bdb277d0U,
  0xbd3494b63d27c704U, 0xbcecc5703dee3aaaU, 0x3df924c2bcc57e39U, 0x3b6846c73ba810c8U,
  0x394c1745bd21e758U, 0x3da3181cbc60fdb1U, 0x3cd49b463d011092U, 0x3a65b4cebd173cf3U,
  0xbd8473ff3d642f81U, 0xbd276eec3b6b3747U, 0xbc379ef3bcb4de42U, 0x3b3167013cf4a021U,
  0xbc50e244bd1ec48dU, 0xbcb284c4bd275bd1U, 0xbc4f74123d3a40fdU, 0xbd3261823d6f8b37U,
  0xbd3664503c883863U, 0x3bd830ef3dd4b568U, 0x3d572bf6bd0a2929U, 0x3cefbbadbd9e501eU,
  0x3d78761e3d8961b5U, 0xbda487203d3a10a2U, 0xbc6b9c833d98ca14U, 0xba683752bd97fb0fU,
  0x3c9c358ebca7fff2U, 0xbc151a673dbd2ee3U, 0xbc8187f43ca75feeU, 0x3cd5171d3c666066U,
  0x3a5f21b13caaa97dU, 0x3d1296e63da899b8U, 0xbc7510a7bc9cc250U, 0x3d97cd4b3b534130U,
  0xbd9dda0a3d5b2147U, 0x3d6f9a373b1b779cU, 0xbd84beb13c0aa8fbU, 0x3d59e79c3af8ce80U,
  0xbb1da1a43d804996U, 0x3cb17956bd73b4e3U, 0x3cf7ea323d325a1bU, 0x3b9a600c3cfd94b3U,
  0xbde69bd43d2c3faaU, 0x3d946dac3dba9a94U, 0xbd82edf4bd27fb00U, 0x3c02a9b2bdb8ba50U,
  0x3d6f4d603ba89eeaU, 0x3d0e79f7bcea0e4fU, 0xbda4677839ea35c4U, 0x3dba12b7bce56bf9U,
  0x3c54f3d83d90b52dU, 0x3ce7bfe9bd524dffU, 0xbc9db74dbcaa84a7U, 0xbdd15075bc895927U,
  0xbd10c75a3d8c998eU, 0x3caba8dd3d9ae78eU, 0x3c470857bda1c7f8U, 0xbdb614bf3c8d7d68U,
  0xbd519a0a39858f70U, 0x3c2dc0dcbd72d98bU, 0x3d6f2b7abd3bc7e6U, 0x3d5ef2debdbca1e3U,
  0xbccd6510bd844030U, 0x3d195de8bd0066c1U, 0x3d049d513d26fbd7U, 0x3cafc234bda7000dU,
  0xbe0903853c8ca03dU, 0x3c58a9673d32a180U, 0xbd36b501bbe9a225U, 0x3c4c7faa3d790798U,
  0xbda1f0e33c3a009aU, 0xbdc2e8e03da41b0cU, 0x3ce6565c3c7f902bU, 0x3d7e692abd3523c1U,
  0xba9a41ea3d2fe1c3U, 0xbcb89935bde9b894U, 0xbd37ac043da41d53U, 0x3d8e9e1c3cc0ac07U,
  0x3d874bbebd09f5b1U, 0xbdd5102bbc66305aU, 0xbd09161cbd80ad79U, 0xbdf97923bd1bdc79U,
  0x3ba94feebd2f7e63U, 0xbda60282bd0887ebU, 0xbd120cde3d4c07feU, 0x3c2824583d65cb60U,
  0xbd4299ed3d3850eeU, 0xbdba430b3d97cc71U, 0x3d3d991b3d012069U, 0xbda4cacb3d451387U,
  0xbde8a31cbd8606efU, 0xbd94d6acbc0d647eU, 0xbd84fc9c3da24b77U, 0x3dcc7711bcf3de3bU,
  0xbc15a9e2bd8bbd2dU, 0xbe062283bbca12c6U, 0xbd75af9fbbff686fU, 0x3c9d07713d0ef7cdU,
  0x3d8b2711bcfb4a47U, 0x3d93dbce3bbc6219U, 0xbd3b3f0d3d565854U, 0x3dd1d4c7bce5ee7bU,
  0x3bfde7be3cb02863U, 0xbd9a84743cfddf38U, 0xbd953d9ebd6cbebaU, 0x3d5259503dc8efa8U,
  0xbd587b1d3d99cd45U, 0x3c7c122abdbf1539U, 0x3d06b8cfbc8204caU, 0x3d98e4433d79d0c5U,
  0xbb457e883d91f221U, 0xbc6c9ff83d1b3f4bU, 0x3cc1a8863d1761b2U, 0x3d094f2f3dbd3c57U,
  0xbdcb7ab53ce6fa25U, 0x3c363e0ebd6a1c63U, 0x3d375be93c04f2dbU, 0xbc99c3d6bd4e9c70U,
  0xbc01d9083be3c6f3U, 0x3ce95954bcd9224cU, 0x3d200affbd358e6fU, 0xbbb4c717bd436efdU,
  0x3d6e5c1e3ddce48cU, 0x3d13fc3c3d7c104fU, 0xbd79634bbd0df049U, 0x3b00b52fbc43d31eU,
  0xbd0ba99fbd7a6163U, 0xbd9b65603c84ac36U, 0xbbdacdd53d036dcbU, 0xbd60e6f33e00f052U,
  0xbca72fa6bcec7dc9U, 0x3d5994e3bd36b40eU, 0x3c32876fbd4f76c6U, 0x3de8fa7ebd8412c8U,
  0x3d061fe53ccfc5c9U, 0xbd181e393c747fe9U, 0xbdadefeebd394755U, 0xbd90e3143dd66624U,
  0xbd04b3efbca77358U, 0x3d56b6bebd06d233U, 0xbd56de453dcb5eabU, 0x3dd9541b3d7463c3U,
  0x3d3fb0183d253fbaU, 0x3d33dbb23d17305fU, 0xbd08a7503dbe36abU, 0xbd33744d3d459c96U,
  0x3b114f2c3bfdc7b8U, 0x3cf87ec33ccdfcf1U, 0xbd48cac8bd8d763bU, 0xbd8321143da9c716U,
  0xbb532b203b61c45aU, 0xbd6d37d63b6bdf3dU, 0x3d102834bcb2f1eeU, 0xbcce3750bdb6ca50U,
  0x3d85b9053c9a91a3U, 0x3cdeed643d04d2f1U, 0xbd1b3897bcba06ddU, 0xbd9091b9bacd8ad3U,
  0x3c8ad17bbc8497dfU, 0xbd007e25bd3648f3U, 0xbccf5783bd1c826cU, 0x3d0423ebbce8b348U,
  0x3bd18fb03d8182e5U, 0x3ceff8cd3dd52ff5U, 0xbbd29c513d51c805U, 0xbd153ae2bac7b654U,
  0xbd2ff15dbc5d9054U, 0xbd326a773d4f61b7U, 0x3d88b95dbd8b7bc5U, 0x3db23d89bd166116U,
  0x3d83dc17bd5697b2U, 0x3d7aa5db3ddcadfeU, 0xbd954d03bd527209U, 0xbd79b6d2bda7cbb7U,
  0x3d4a8624bd8cb319U, 0xbd1a09283d3e14d2U, 0x3cc3cd213d7b0c44U, 0x3d5c71163d4f8e9eU,
  0x3d8fe2c83d4ebe76U, 0x3d4bd5c83c456e42U, 0x3d7ccdcabcb0a086U, 0xbd9bca9dbd908c7bU,
  0x3c26f79e3d72395cU, 0x3d941621bc8025e5U, 0x3a85d0973d47e631U, 0xbd9887a2bdbb89f9U,
  0x3d880ec33d9c6386U, 0xbbeda7d5bba40147U, 0x3c1a45483c6009f9U, 0xbd084c89b820acadU,
  0xbd1b43d73d9a3900U, 0x3d38c6c13d9b14bbU, 0x3d100c763ce9a2c4U, 0xbcab9f783c9d555cU,
  0xbd61c1a8bda60baaU, 0xbd85a0223cfb029eU, 0xbd7d82ac3d4d6930U, 0xbc99cb8e3d8b2245U,
  0xbd9b8ae5bda54b42U, 0xbda58bb1bd91dd75U, 0x3d45c452bc7b3540U, 0x3d8b6d53bdab2231U,
  0xbd120162bd504c6eU, 0x3d4ca2533d159bcfU, 0x3d201e44bcbae959U, 0x3d094f16bd5c79d2U,
  0x3d97aed6bdad1568U, 0xbd544cbfbc81e0e9U, 0xbd7cf187bd90b402U, 0x3bdbfac63d21ef69U,
  0x39fae42dbce613e7U, 0xbc361e063da02518U, 0xbb99e970bd91b2ddU, 0x3d0d49cc3c609e93U,
  0x3dbd6b4ebda3b31fU, 0xbb892fbb3d8bb3d0U, 0x3cd761253b9bd8c4U, 0x3b90d4ab3cc7b68dU,
  0x3d7161553d6a2efaU, 0xbd07e518bd265323U, 0xbdcfd79b3b443d14U, 0x3d8dfc493b4c0941U,
  0xbdd3d3e93c516a30U, 0x3e1cf8f8bce1444aU, 0xbc5af0bc3d95cf03U, 0x3b872256bc4aba1eU,
  0x3d2691483c5b4567U, 0x3c8a5579bb018c66U, 0x3c6f28933d900d39U, 0x3be97cbb3d48451eU,
  0xbd232bbf3bd60d1fU, 0x3dc08e4ebd0b93efU, 0x3daab647bc847f1dU, 0xbd8750583d5859d1U,
  0xbbdf95cc3d12e952U, 0x3d5e11583cfbfa18U, 0xbd63e808bcfcf852U, 0xbcc3c8e43d4a0f05U,
  0xbcce55de3ce71834U, 0x3dfea967bd9250e7U, 0xbcf677b3bd5df850U, 0xbcfa6e113ca97576U,
  0xbdf58f37bb1e0396U, 0x3d9eb5793d941b8bU, 0xbd761c143d1fc10eU, 0x3d943b8c3cbb1e10U,
  0x3d91d9b3bd6f6b57U, 0x3d52f9713c9ca777U, 0x3d17ee283c519bf6U, 0x3be153eabd0d2506U,
  0xbd32f49e3d2102ceU, 0x3d146e3a3b8c7998U, 0x3b33a2053c3644e2U, 0x3d17f5013da32ce9U,
  0xbb84768fbd3fffa5U, 0xbd8869223c933d1fU, 0xbd934330bdd0f84fU, 0xbdb4dbe2bdb00389U,
  0x3c78ab5fbd3674bdU, 0xbd68fdf1bce40724U, 0xbc994cbe3d33d448U, 0x3da22297bd9647fcU,
  0x3dbbb0e23da4c2b5U, 0xbc22cfd4bd7428c6U, 0x3d0f59913b9a231aU, 0xbcebd9a33d277208U,
  0xbc25c34cbd250286U, 0x3d997584bc1f591bU, 0xbdafbd583c92a1d4U, 0x3d992458bd39b82bU,
  0xbc88f524bd742ba3U, 0x3d0160893d921908U, 0x3d7438e33d6c9fe3U, 0x3d414d1abd7e6c4fU,
  0x3a32894dbc1cf143U, 0x3d9db5c33bf523a6U, 0xbdc4d3a43da0f77eU, 0xbc48aa3d3d29e6f0U,
  0x3db454d73d241c55U, 0xbdb72cd5bcaa4eb8U, 0x3d0cc962bd0120d6U, 0x3d6fd3c73c8c704dU,
  0xbd044241bd8e990dU, 0xbd0ac192bbfdae72U, 0xbd8109bc3d8f0de2U, 0x3d948659bd9a306eU,
  0x3da92d243d33dcd2U, 0xbcef0898bd0b884eU, 0x3c2d88f6bd8d06a7U, 0x3d4c564cbd58508aU,
  0x3d9d2dc5bccb0854U, 0xbd1c63643da0c054U, 0xbd8e2eaabd39d6a6U, 0x3daa3ff33bc23305U,
  0xbd217c1c3d8a29b9U, 0xbce0e1b6bcd2f8cdU, 0x3d7c7b1bbd879d04U, 0xbd7567663d49caecU,
  0xbce31f663a8fe797U, 0x3d693813bd0efa21U, 0xbd1bd35c3d76bea0U, 0xbc0c3e273d9b62e1U,
  0x3bda59d43da4b0c6U, 0x3d201e5cbd9700caU, 0xbd29af8dbd6a8b63U, 0xbc80a66fbcd2659aU,
  0xbde239ffbdbbe49aU, 0xbd0351e13cbbcabeU, 0x3d7ca4713b6d0d0fU, 0xbcb23e86bd9b3b77U,
  0xbc136f3abcd828bfU, 0x3cc31ede3d78e6f5U, 0xbd0acbddbc852728U, 0xbd4078943be024c4U,
  0xbd2d7ebb3d179a01U, 0xbd64a8f2bb4d0c61U, 0x3b0219353d7d2b61U, 0x3da6cb0d3c8d6ec9U,
  0xbbf029d93c53dbd3U, 0x3d8a8d45bcd63b5dU, 0x3d08c27c3d0b6444U, 0x3cdc50c43d2289fcU,
  0xbda2e5833bc8ca1aU, 0x3d01704dbc937288U, 0x3da10d8b3d61105cU, 0xb8844d2dbd923f65U,
  0x3d2173cabcf65b43U, 0xbb26487cbd172ef6U, 0x3c8ee1ba3d815843U, 0xbd5561cb3dc4e1e8U,
  0x39753a913d5e5660U, 0xb945a5c1bc45b928U, 0x3d6e4a043cb58d18U, 0xbd5b2b08bc12b93cU,
  0xbb6c1898bc08b415U, 0xbd2e3b443bdfb559U, 0x3d7a5796bd9e98c9U, 0x3d5a410dbd0a3dcdU,
  0xbbf67de6bcdd204eU, 0xbd429808bbef1ed6U, 0x3c34c8333c6b6cfaU, 0x3d716b76bd972ab6U,
  0x3ddc2bdc3d82c195U, 0xbcb27ac8bb4dd575U, 0xbd6254bf3dda9be8U, 0xbd9069bdbd5eeb03U,
  0x3cc59b503d87c6a6U, 0xbd883baa3d82ca9dU, 0xbd125497bc993685U, 0x3d577b39bd9b884eU,
  0xbba7b7d5bd869abfU, 0xbcd30f7e3cb7b50fU, 0x3d435fd43c8c03aaU, 0xbd1f089ebd45c2cfU,
  0x3dd2f2c23ca3392fU, 0xbcb4dbd13d20db24U, 0x3dbdac533d2e3bdfU, 0x3d90193e3b9a52f4U,
  0x3d9d1faf3d40d9d6U, 0xbd2ea7eebc7ea317U, 0x3d2fc828bd52d651U, 0x3cb6d03f3d0aaedcU,
  0x3cc21418bda2d429U, 0x3dab71ea3deab80eU, 0xbd864e86bc5dcb56U, 0xbc0c3fe03c77a270U,
  0xbca93a1bbd94eee0U, 0x3cec7a523dc413b2U, 0xbd2a886c3d815561U, 0xbc8b0a563c9171c2U,
  0x3c534ee33c8d0d24U, 0x3da8145cbd1ecf21U, 0x3c66d1bbbcdf5076U, 0xbd885243bd6782c1U,
  0xbcc8404fbd851dc2U, 0xbcebfcaf3dbf2611U, 0x3d33fd9b3ce4fa7dU, 0xbca78b85bd28dc9cU,
  0xbddb40d8bd08d634U, 0x3da196d1bd030c90U, 0xbcc7826f3d45e135U, 0xbd3d6cca3d9a2647U,
  0x3d291210bcc3e523U, 0xbd6447133d9d4b9eU, 0xbdbf7b89bd019865U, 0x3b2ccb5f3d8bc901U,
  0xbdbd4d74bd6116bdU, 0xbc5f1a08bce4f69cU, 0xbce3a8adbdcd676cU, 0x3d178bd3bd08f25bU,
  0x3c78ac373da82d0dU, 0xbd79f8e63d94fe34U, 0x3c71da92bd41f7daU, 0x3c4127e4bba5abfbU,
  0xbdbca5db3d334513U, 0xbd0259153d8c5619U, 0x3bf273cd3d74e767U, 0x3d90a0563d8f52fdU,
  0x3d36c34a3c368779U, 0xbdd36a223da8669cU, 0x3cbf02263db30180U, 0x3d6ba94ebb68668fU,
  0x3c572ec4bd34919fU, 0x3d135b98bd6a6e2dU, 0x3c150846bbcaffa2U, 0xbd28b4303d7f6a39U,
  0x3d3c1747bd4043aeU, 0xbcb81b73bcd73759U, 0x3ba52653bd741d2cU, 0xbd594f623d025ee3U,
  0x3d08de523cb1ed0fU, 0x3daa1c4d3d901a0fU, 0x3d8fea8ebd81d479U, 0xbcbad49c3c12259fU,
  0xbc96a9933d8d56f7U, 0x3d1a8a95bc7a4d53U, 0xbd4f29e3bd372afeU, 0x3d33185b3dab187fU,
  0x3d1edfd3bd275981U, 0x3c61bb3b3d148050U, 0xbd241506bd083433U, 0xbd1e97b43d8bdff8U,
  0x3dc0428a3d8daabfU, 0x3c94a47b3a4fbd9aU, 0xbd8d0ef93d6b4eebU, 0x3d8d9b78bcf5d2dcU,
  0x3d87f19c3c77814dU, 0xbc1ea1b23dbb1454U, 0x3c61e654bd42ab39U, 0x3b00648ebd79e127U,
  0x3cf414993d739e3bU, 0x3d0f4a86bcf2db84U, 0x3d4e583a3d7ff757U, 0xbb8449c73ba54aeaU,
  0xbd73f3f6baa13021U, 0xbd78fb683df318aeU, 0xbd56c298bd52b30dU, 0xbde7d6cabc603025U,
  0x3ce0995cbc9bfe54U, 0xbd392820bd0f9b1dU, 0xbc215ea13c955cd8U, 0x3e005bb0bd971bc8U,
  0xbdc79fea3bf7db37U, 0xbab21798bcae58a8U, 0x3d605b223d8a9b8aU, 0xbdd3f502bdad3235U,
  0xbd2797e53d5d1c7cU, 0x3cef39bdbd0fe0e9U, 0xbc98d4b13c541b14U, 0x3d5fb97abdac0254U,
  0xbdcf7eefbdc827ddU, 0xbcb0a96dbcff6849U, 0x3d91024fbd703836U, 0xbd62e9d2bd229c6eU,
  0x3d742d6cbd07e692U, 0xbcdd826bbd7aa22cU, 0x3db29956bd4e0f0aU, 0xbcc898d9bd4aa103U,
  0xbc3753693d7b113bU, 0xbd496e6d3d814b9eU, 0xba07f469bda71ff3U, 0x3d5f827dbd1beb96U,
  0x3b5eb3b2bca3e92dU, 0x3d312974bd3d35b9U, 0x3d92d21cbbed8b52U, 0x3dfb5f893d3f0f49U,
  0xbda59299bce91f97U, 0x3d562f1f3c2e27e2U, 0x3d75d1383d7ca3b5U, 0xbdd122c2bd24323fU,
  0xbd88ea7d3da845f8U, 0xbd604f6abcac41c9U, 0x3d80c1db3c4d83f0U, 0x3ddf08783d8161f1U,
  0xbcdfe201bc99cc1eU, 0x3d9f6c323db637f8U, 0x3c88057fbc59afacU, 0xbdac56e4bda558bdU,
  0x3d05bcd43d75a9c7U, 0xbd6f8816bd3aaf7cU, 0x3d9d09d53c8125f9U, 0xbba77f25bb8aa885U,
  0xbd2f35fc3cecd608U, 0x3d3e6d96bd2b59c8U, 0xbdbaf9dc3d18f801U, 0xbd91af70bd662616U,
  0xbdbc3c61bd85c044U, 0xbc20ab74bc4a3b01U, 0x3d4c9e383cfe61f3U, 0xbc150232bdad9ee9U,
  0x3d0fbc293c74e611U, 0x3c631a843ddc17b0U, 0x3ccbfbbabd292237U, 0x3d3ca4aebdaed6e1U,
  0xbb9e89eabc814cdfU, 0x3d17a5033cb4c2faU, 0x3dbd361e3ced4150U, 0x3da75d7bbd74dea9U,
  0x3d4b5c7abd847976U, 0x3a4ad2a4bcff4af2U, 0xbd8ed10d3d4b7c1eU, 0xbc8fc8eebd8dd375U,
  0xbdae77003cc13a9eU, 0xbd32d29d3c880ce7U, 0x3da9f6683d52cffeU, 0xbcc4ed593c969244U,
  0xbb2ecf333d9dcf24U, 0x3ce99dac3d646f4fU, 0xbd623326bd00beb4U, 0xbc70f70dbd9c352cU,
  0xbc39b864bcd93cc4U, 0x3d715ca3bd8c45feU, 0xbd732de1bd0a67b2U, 0xbd84f8fbbd96aeadU,
  0xbd1c9fc4bc67b847U, 0xbd87c563bd699f5eU, 0x3c20059e3d8081ebU, 0xbd5cc6cc3bbe0792U,
  0xbd8d51963d9561c4U, 0xbcbce0473d7a3738U, 0x3d9ff5e8bd467cb9U, 0x3d8e5db2bc4b9a16U,
  0xbd953957bac22532U, 0x3be3b9503d2321a3U, 0xbbce93dd3b388ca1U, 0x3caa7ffcbd496a6cU,
  0x3d235539bd8fc0f1U, 0x3cbbac2fbcb5cad1U, 0x3d12b226bd98fb4bU, 0x3cf9a7f9bd73b820U,
  0xbdc68f9abd31ca74U, 0x3d91d938bca6ae85U, 0xbdbc8380bc5064f3U, 0xbc07f103bd024511U,
  0x3da5c77e3d9d651fU, 0xbd9e353b3c91ff2dU, 0x3d12d7e53dabdeefU, 0xbda4c4d4bd6f7b7bU,
  0xbd834f96bdb774d4U, 0x3d5e054d3d0909eaU, 0x3c43a8c4bd9d40e3U, 0x3d987220bd970ed5U,
  0x3d43686e3ca58dd8U, 0xbcdc3a2d3d8060c3U, 0x3d64ce37bd904c4eU, 0xbdafc95cbd7a82e5U,
  0x3c740d733b778658U, 0xbb0ef3103b963b2cU, 0xbd07047abd7de853U, 0xbd95b642bcc630b8U,
  0xbc74e1b83d148712U, 0xbd8d27ea3c8b0a8aU, 0x3c6baf32bd686de3U, 0xbd353ba6bd697e51U,
  0xbdc0aeb6bcaf2d87U, 0xbcbba30c3dac976eU, 0xbdcb37f83b9ce663U, 0x3c8115173d8bdbaeU,
  0xbd726f883d589b86U, 0x3d257bd5bd63b110U, 0x3c85067ebd583d99U, 0x3d41f182bd97d006U,
  0x3cf4f8fdbd5a140eU, 0x3cc967f13d031612U, 0x3b50ec32bd8cb23fU, 0x3d4cca29bd9a1533U,
  0x3c42d652b9a2fb2bU, 0x3d97060c3c81691aU, 0xbd7a8ae53c41a9ceU, 0x3dadc0c8bda06d77U,
  0x3da250643d4a48abU, 0xbdb0b2973d34ffffU, 0xbde6af45bceda437U, 0x3c6baed6bd6afbfeU,
  0x3cbfc3e7baca9675U, 0xbdae662f3cbde79eU, 0x3cebef35bd71d6b8U, 0xbc13a8dfbd886f6bU,
  0xbcb0c6193d66c8d4U, 0x3d84296fbd0e6105U, 0x3d54c1c4bd8aab68U, 0x38f7e39c3bcca05eU,
  0xbb969ab13c63e90bU, 0xba64bcf3bca1985aU, 0x3d01eed9bceeefdeU, 0xbd2628823d014804U,
  0xbcf6f2a0bd3536ceU, 0xbd12deb8bd7ee708U, 0x3dac8863bd7a37e3U, 0x3d885b7abcf0c9f4U,
  0x3b7544123c5f37a6U, 0xbd92ae5bbc9c2728U, 0x3cdce81b3d391885U, 0xbd0396aebc5c145eU,
  0xbca4fdc7bc9b2b06U, 0xbd0844afbdde95ebU, 0x3c5c04203d06a8e5U, 0x3c036b91bda35485U,
  0x3d8aae3abcf141c7U, 0xbd92cbfcbd5b8d97U, 0x3c45e0e73d81f3edU, 0xbd0375b9bd7096beU,
  0x3b36a7fcbc3f956eU, 0x3d4d28cf3d12935cU, 0xbd7d511dbcd14c8cU, 0xbc214fc4bc219e4aU,
  0xbd56039abcff9a23U, 0x3d3365edbda4146eU, 0x3d7feba03d5137edU, 0xbd9a5929bd387d45U,
  0xbde11f7dbdc244daU, 0xbcff022cbd0621c1U, 0x3d7d34843d4c2573U, 0xbc6b8f9d3d167322U,
  0x3da5aba4bcc941baU, 0xbc991ae93d7eb997U, 0x3ceba2bb3ccfe90dU, 0xbd9260703d0c103aU,
  0x3c98dc7ebc5a66c1U, 0x3c9aef3e3c070601U, 0x3db258ae3c0bc2ffU, 0xbd0814d83d4e6112U,
  0xbc900c9f3cefe565U, 0xbc5567053db3012fU, 0xbd88e10abc858883U, 0xbce7d119ba77c255U,
  0xbdd5b8d93c47f41dU, 0xbd13c9d0bcf25305U, 0x3cd40d41bcb2aeafU, 0xbd1d63e53cb236a4U,
  0x3d471ac13c8d3c9fU, 0xbd382da03cdc1e5fU, 0xbd2d04123d23f6f8U, 0x3d0054c9bc8e31e1U,
  0xbdb05f1c3d8474e3U, 0x3d007701bdcbb039U, 0xbcd2e58bbb968affU, 0x3d31a8d43d22f40cU,
  0x3c8e97ffbcdab42bU, 0x3ced99cbbcccca3dU, 0xbd91cdc73d75c5f3U, 0x3dae10d63c5abe20U,
  0xbc802bb3bd829d4bU, 0x3c788f99bd83429dU, 0x3c2d7894bcd01764U, 0x3dccb4283d5e942eU,
  0x3ce2d9173c9d105aU, 0xbd3982b13ccc9e16U, 0xbcbedb163cc773d7U, 0x3b30e429bd00044eU,
  0xbcaedf013d731f06U, 0x3c0fa7363d58f47fU, 0xbd919a053c31655eU, 0x3da8915fbbb812f7U,
  0xbcd0ad663d58ca63U, 0xbbb387a23d8a68c7U, 0x3d4939dc3d5e8d5eU, 0xbc0f76adbd101b7cU,
  0xbd826f4c3d04d8d6U, 0xbd2eca983dabf19aU, 0xbc8c8ba2b984cdbfU, 0xbca941bfbd278c03U,
  0xbdc0e0513da04e3eU, 0xbd63c47bbd10336cU, 0xbd2263efbbecf384U, 0xbd8362b63d31569aU,
  0x3dd94224bd6e5e59U, 0xbd107f4e3d926a08U, 0xbdcd80c93d552966U, 0x3cf77c653d865c6bU,
  0x3c22b3d9bd0c7c20U, 0x3c135a8d3d7c8293U, 0xbc8335f93c74d916U, 0x3db23f153cec7ef8U,
  0x3cf86156bd39a215U, 0x3b1c330b3d2f31e2U, 0xbd1bedeabcd72f9fU, 0x3be9c44d3d5d9779U,
  0x3d263e8f3c4d08d8U, 0x3d9efb34bd4aa24dU, 0x3d238247bd7baa03U, 0xbd9617aabd59ee77U,
  0xbcfff4febcddfa36U, 0x3d69eab43c26be27U, 0xbd47062abd0e09e8U, 0x3d9d78243cda69d0U,
  0xbda49167bcad08c2U, 0x3d97a9603bcbb69eU, 0x3d89e4d4bce9693bU, 0x3d8ad8483b4fe35bU,
  0x3d99d683bd958863U, 0x3ca6fc263cb800a9U, 0xbd888f11bcc5f689U, 0x3db80ec33b0eeed9U,
  0x3c42b816bcbf5cceU, 0xbd508e103bfc794aU, 0x3d969d783d833489U, 0xbc9477873b547948U,
  0xbda49413b9f84745U, 0xbd5e84103dadd802U, 0x3c1235e6bc76a7e7U, 0xbd4ff2103d432160U,
  0xba8b4ae33d821ae3U, 0x3d2da9213d364912U, 0xbd7546bd3d58991eU, 0xbc58f8b6bd1db937U,
  0x3d90ac863b7ddeedU, 0x3d3d3720bc61ef93U, 0xbdd9e810bd58e6d5U, 0xbb484821bd0dce88U,
  0x3da72973bda4de7cU, 0x3cccdc4f3d010f59U, 0xbda2c711bd8dd87bU, 0x3c3df53c3d86dfb6U,
  0xbd260aefbda29e20U, 0xbd14c032bca703b4U, 0xbcd6b9f73d143461U, 0xbd8c5d97bd888381U,
  0xbdb2684ebc778867U, 0xbd08f5843d0f0c9cU, 0x3d6c5ee2bbedaa0fU, 0x3da5d54dbb047b68U,
  0x3d7af276bdba2c65U, 0x3d8e401ebcbf62a3U, 0xbd8a64b5bd980d03U, 0x3dc7a7fd3da33729U,
  0xbcc028273cd5c662U, 0x3bda8333bd09b0c7U, 0x3d3daae5bdaeb840U, 0xbd47a2cd3d6aff5fU,
  0x3dc80087bd8ac9d3U, 0x3d49a092bd83fdfeU, 0x3cfd9824bd8c5c6cU, 0x3db632ef3db4cbb1U,
  0x3daee66ebbaa030fU, 0xbd45e4b6bd03c042U, 0xbcf90322bba300e9U, 0xbd876cc53c105323U,
  0x3d04c74f3d7dcb1bU, 0x3c9737c9bd389c64U, 0xbd855de9bd1d95baU, 0x3dab4a4cbc934be0U,
  0xbca184d33c9f1271U, 0x3c93fefebd92a31fU, 0x3c35ce36bd9bb60fU, 0xbc9a9ee8bc26bdb2U,
  0xbd8353efbd89d8f7U, 0x3b8be412bd2d5341U, 0xbca8473e3d29ebf6U, 0xbd520fb6bbcd5a86U,
  0xbd49b4e2bd42399aU, 0xbc7811403da10481U, 0x3d7614633d14910eU, 0xbcc7cd36bcab0071U,
  0x3d3c85d0bd61b42aU, 0xbd566f42bcb50034U, 0x3c1bfd4d3d828583U, 0xbc9bf4ffbc8576ddU,
  0xbbafb2343d4ca419U, 0x3d1deb71bd4b7f9cU, 0xbb1eee82bb3eb0a2U, 0x3c90aa42bdc58523U,
  0x3cc5e8733d4854b4U, 0xbd6d60963c6f2429U, 0x3d49db90bd981446U, 0xbd2c94db3d885aefU,
  0x3d3add05bda324f6U, 0x3b61fafdbd4bc88fU, 0xbcfb650d3d8ce734U, 0x3bdcf2f63d0b9fc7U,
  0xbd0a9f90bc9593b9U, 0xb9a0147a3d4610f2U, 0xbe07c672bd704036U, 0x3d7eec65bce47c8eU,
  0xbd7c05b9bd9dfd9cU, 0x3d9ba0a0bcd8d23fU, 0x3d41d5f4bd7dc0d9U, 0xbbbac2b8bd8fb074U,
  0x3d8797333d6bef25U, 0xbd8478e63d073e9fU, 0xbbafb2b13c6b9f71U, 0x3d1ed4a03d7515f6U,
  0x3d7e4b633cc88778U, 0x3d9f57203d825415U, 0x3d8aafc0bd90bcfcU, 0x3ccca442bddc0be8U,
  0xbce043b8bcb34c9aU, 0x3cb0f689bd635139U, 0xbd76117cbca22ce5U, 0x3d51ebc13d0f111eU,
  0xbd6dab953d8ebbf3U, 0x3d26923b3cbaeeaaU, 0xbc9b1f983d0e5604U, 0xbd44a65bbd4e08c3U,
  0x3b11d8703d8b4c76U, 0x3cf5cf5ebda7766eU, 0x3c3b5f0abbf838eaU, 0xbd33042e3d0a2b84U,
  0x3c76de2bbc4d4704U, 0xbd000493bc211ed5U, 0xbd8f2c003d950994U, 0x3cdc623c3d94ea36U,
  0x3d4c4da63d148745U, 0x3d9588a53d238c93U, 0x3d553c7a3d9adbb2U, 0x3d2a56d03d056c06U,
  0x3d7c33f53c5a6cebU, 0x3b9a730a3d874b2cU, 0x3d0c90e43d2beaceU, 0xbd1aa3263be27552U,
  0x3d3b9c9a3d6f897aU, 0xbd5798fc3cd497f2U, 0xbc4b17ed3d827280U, 0xbc726564bd2bc914U,
  0xbcab74d83d9b8b2bU, 0xbdbdec4b3d174667U, 0xbcf59a36bcd30180U, 0xbd96440dbbffb147U,
  0x3dd14d85bdafddfeU, 0xbd9296f63d314bbfU, 0xbc56b5473d185d25U, 0x3a886f17bd480c13U,
  0x3dc89b983ca97423U, 0x3d788e68bcdec89dU, 0x3dac5fe43c8aa130U, 0xbd3116b03d18525fU,
  0xbd6611c63d37b6d1U, 0x3c9aa90abc9c6b5eU, 0xbbd067afbc5e910cU, 0x3c2363903daa4237U,
  0x3cfecdfcbd85055fU, 0xbcb07037bd346018U, 0x3d0565eb3d0e6cd3U, 0xbb982e84bcbe487dU,
  0x3df3eba93bffc84fU, 0xbc98af89bd559f54U, 0x3d80c7bf3c0ce4b4U, 0xbd1da4db3ccd603fU,
  0xba7bdab0bc93de29U, 0xbd4a4490bd21656dU, 0x3d1162d1bcfc04b0U, 0x3d0c9d033c00de31U,
  0x3d167926bda9b9f1U, 0xbd3aac2fba9fb182U, 0x3dd41ac03d8220eeU, 0xbc9ce5f4bca9d77dU,
  0x3d9ba1893dafb7c0U, 0x3aaf57e93d2b8e12U, 0x3cd99615bd89086cU, 0xbdaa9cf53d321c4dU,
  0x3c9ae7583da4a332U, 0xbc58b973bd474a6eU, 0xbd08e52a3c9fa67aU, 0x3bf3af81bc856785U,
  0x3d6cea89bbf2edb0U, 0x3c92ab623d41c181U, 0x3cf257a53bbe5f04U, 0x3cde0d303d65ff57U,
  0xbd2aa51b3b2737baU, 0x3b344f05bd4ce931U, 0x3db53646bd87af19U, 0xbda05d4a3d6dce9aU,
  0xbd07dcb33d8b661fU, 0x3c44465bbd6a4d2aU, 0x3d51408ebc91dbb5U, 0x3d9fe27fbd82f1b4U,
  0xbd458b15bbcb7858U, 0xbc72ce1a3cef0476U, 0xbda6573cbca9d9dfU, 0xbdad9c883d841b76U,
  0xbd24cf5b3cbc1e86U, 0x3dd6b88fbce19f80U, 0xbc99d292bd31a672U, 0x3dd7cecbbbdda86cU,
  0x3c4893b43d729329U, 0x3d0a1ba23dbbd5c5U, 0x3da1414cbda9758dU, 0x3cda9c32bd4ee0b9U,
  0xbdb384ee3d5fe269U, 0x3b7b8e6e3c942b4dU, 0xbdacf9593d6f51faU, 0xbb8696763d9fe03fU,
  0x3d003b493cf0d7b2U, 0x3daaacd8bad0b806U, 0x3d83eee83cab163dU, 0x3d37d6a4bd14e275U,
  0xbdb04d003d57a029U, 0xbcd7f5443dd0f3bbU, 0x3d4616d83d41b676U, 0x3d8f520a3da2ee4dU,
  0x3b5c21f03d349ad5U, 0x3d9093d73ba520e3U, 0xbd2a8c05bd316156U, 0xbdc4ca9b3d904413U,
  0xbd43f4e9bcf6bf6cU, 0x3da83c6bbda4976fU, 0xbba33c353d315485U, 0x3d3971cbbd3ae3daU,
  0xbd507b683d1fffcdU, 0x3a7cf4acbd089902U, 0x3dc0d28e3af33b7aU, 0xbdb994a1bd40d670U,
  0xbd50b6923ca1014bU, 0x3d95656dbd8840c2U, 0xbdbe087cbd686b66U, 0x3d43b271bc951119U,
  0xbd8c406abd30a463U, 0xbd995d75bdab2613U, 0x3d2ac667bb726045U, 0xbd237fd63d957ecdU,
  0x3da83f59bd9f90f3U, 0x3c89eea13cc80ce0U, 0x3d92dc033d603fb6U, 0x3db3c6243d211bc8U,
  0xbd5fdc753d0ac0c8U, 0x3c99a15d3d61083dU, 0xbd640f6fbc1f0df3U, 0xbd2351543cd9520cU,
  0xbd38421c3d8fbe29U, 0xbdaf49c03daf9acfU, 0xbc6f8e763d510d96U, 0x3c37f0b3ba1de462U,
  0x3bdeeaca3da17d97U, 0x3c9cc35bbc799938U, 0xbd8aa8223abc559dU, 0x3bc011953d14e7d4U,
  0xbd9d1bdebd6c0255U, 0xbcd7aa76bd0188f4U, 0x3d10f5253d9fbea1U, 0x3c9911b2bccca6c5U,
  0xbdba1697bc82eac7U, 0x3dafa544bcb6de69U, 0xbd670ad4bdc2aab0U, 0xbd01f5813c592dcdU,
  0xbc4670653c251e98U, 0xbdb45dcb3d849447U, 0xbccaa65dbc7bc8abU, 0xba99a6743d7c4893U,
  0xbe0b3407bdb50c4bU, 0xbcb8b37d3970d49dU, 0x3d4497493cf8b278U, 0x3bbce09b3d986e08U,
  0xbd08fc1e3daee5c9U, 0xbdae53b73d4c30c3U, 0x3d643017bdcda5c6U, 0x3d1b78a4bd90ec7aU,
  0xbd7cd9cd3d1ce12dU, 0x3d8bc4a4bc8b9df3U, 0xbd83642cb9618715U, 0x3d8e583a3d9e073dU,
  0xbd72c8933cf690b0U, 0x3c97fce7bd810626U, 0xbce50d72bdc8db27U, 0x3d8f616cbb684df8U,
  0x3d8dbb64bdbcfcecU, 0xbd8842583d826e31U, 0xbc7819a2bbfc7ba8U, 0x3dca4e97bc754b28U,
  0xbd04c2123da70a1aU, 0xbd83b710bd72715bU, 0xbd9f63b2bd82309cU, 0x3c94018e3c068a1cU,
  0xbe032d3cbd9c057aU, 0xbcb278683a4d8869U, 0x3d8730003d6812eeU, 0x3c343d083d04797bU,
  0xbd0a37de3d578ae1U, 0x3d0b5c483ce1b1daU, 0x3af57a93bc16e46aU, 0xbd73763cbb8b92caU,
  0xbd58b45abb97a8a8U, 0x3d9074f83d935481U, 0x3d514b7b3ca88e23U, 0x3b79099b3cc2d7deU,
  0xbcd739e53d7ea185U, 0xbda4066d3db3083fU, 0xbc83e8f23ca95f2bU, 0x3da9f6f83d65e001U,
  0x3df5d3c0bceb8ae7U, 0xbd6e8d51bd1f9132U, 0x3d21dbb1bd770f77U, 0xbd26170ebd545e52U,
  0xbd9063263da7c999U, 0x3d45a4f3bda62174U, 0x3d09f151bd6a62eeU, 0x3cec47c7baedcf31U,
  0x3d914835bcc05f69U, 0xbd93c9383b68f3adU, 0x3dc26cffbd752986U, 0x3ce110c6bc0b5293U,
  0xbc296eccbd64a946U, 0xbd9b32433d508577U, 0xbd11b3603cfa0e11U, 0x3d8cb5723d08974dU,
  0x3d646fcfbcc4c1eeU, 0xbc93222f3d8ab999U, 0xbbc9f4303d9782e5U, 0xbd620bbfbc019226U,
  0x3d7baf37bc0a6eaaU, 0x3ccaaa793c8a0affU, 0x3bfc0536bd0b8f9fU, 0x3d3f69c93bf3dff6U,
  0x3de3a7163d91080eU, 0xbd936bd13ddb4473U, 0xbd38ab753d5c4799U, 0x3d789d533d404b87U,
  0xbc93b46f3cd0cab3U, 0x3d2ae853bda4e73aU, 0xbcd2fa50bd157c5dU, 0x3c9ccd56bd55d584U,
  0xbd681000bce92329U, 0xbdccfe563dfe7341U, 0xbdc83dafbdfebaf9U, 0xbde36cd8be0010bbU,
  0x3bacef51bd0261b8U, 0xbe2be08cbd32747dU, 0x3c3442603d7686c0U, 0x3dae547fbe28a9f9U,
  0x3e1d84b03db71a1aU, 0x3d45aeb03d9385a0U, 0x3d828b7c3de7d3fdU, 0x3de590c23d3bde26U,
  0x3db91d96bd5cb714U, 0xbcb0c76a3e0f4a6bU, 0xbe2a7a59bd243f08U, 0x3e08c674bb54fb2bU,
  0x3cf249a33b86775bU, 0x3c57eced3caff13eU, 0x3d35a3e03cb214d8U, 0x3ca66254bc7cedd7U,
  0x3cd25a113d271879U, 0xbd99ff963d03ea8fU, 0xba96b75ebd92b65fU, 0x3ce3ac2d3c47d9f2U,
  0x3d013b64bceef3d3U, 0xbc85500c3b18a81bU, 0xbcc131cb3d703dfaU, 0xbd0cf842bd330849U,
  0x3d7a229cbc4b6964U, 0x3d0e2801bcc4682cU, 0xbcef2b933d3f56d6U, 0x3d72d01c3cccb851U,
  0x3d01cdf7bce552a1U, 0xbc4a6347bd82eb06U, 0xbd4ffdc83d7ef6b5U, 0xbc4626b93c9b4de2U,
  0xbd334d73bbd317a6U, 0xbd2acc63bd523bb8U, 0x3d391cf13cc61d11U, 0x3d6d98b5bc031f45U,
  0xbd11f7d53d30d1f7U, 0x3c8f3031bd6c86dfU, 0xbca69a46bd1657feU, 0xbd67d12e3d34a1f1U,
  0x3bf4ca303d551ed2U, 0x3d1dc83fbc46d702U, 0xbd1f7e37bc52a308U, 0x3b906438bd64d653U,
  0x3d7027fbbb575e4dU, 0xbc2e19a6bcaad549U, 0x3ccc342dbcbcc5e7U, 0x3b1ab7a2bc6b385eU,
  0x3d105f683b44a09aU, 0xbd8ed85abc613062U, 0xbd42f2d4bd2688d0U, 0x3cfa47cc3ced70d1U,
  0x3d0960023d462951U, 0x3c43a60d3d18d4a6U, 0x3c748b083d12c8edU, 0xbcb6e8473b504ddaU,
  0xbd0e96f83d6817f1U, 0x3d5cba94bcf2b1abU, 0xbcdb9b65bd4d3226U, 0xbcd6b962bd3e0af6U,
  0xbd8e178abd880ffbU, 0xbd5de8e3bb95a40aU, 0xbd1dc1ecbda12f77U, 0xbcaccac7bc6fe141U,
  0xba8435183cdc33bbU, 0xbcacb901bd327c5eU, 0xbcd677e5bc869cbaU, 0x3c6b54933c446cbcU,
  0x3c2b285bbd4dda0dU, 0xbd6c4ba43c023c2eU, 0xbd45cc9ebcb1a56bU, 0xbd2e7cf0bd547d46U,
  0x3ce47d33bd4cdb87U, 0x3ca51059bd16cc8aU, 0xbb7b2de93cad665bU, 0x3d1b0205bd27259dU,
  0xbd196e1fbc8ac3f0U, 0xbd869e103cb1afa6U, 0x3c44b6d23c192525U, 0xbcb746b8bc703d41U,
  0xbc9c58d2bc72f1bbU, 0xbd94e92cbd4ccafcU, 0x3b3e408f3b82de4aU, 0xbbfef23abd16d2f1U,
  0xbd3c79a8bd63ec9aU, 0xbcc9b6b2bcada777U, 0xbb741b9e3d284c5dU, 0x3c77413cbcac6e39U,
  0xbc47629f3bf9e979U, 0xbb791420bc5ebe1cU, 0xbcb0889e3d4e3b90U, 0xbcddc1f33d42f073U,
  0x3d607b04bd6ec99bU, 0x3d199040bcb39c26U, 0xbd4a8fc23d44a5c0U, 0xbc9ab5983d35f4e0U,
  0xbc902ecd3d59ad45U, 0x3c5613ee3b158a18U, 0xb9fa2e553ce8be53U, 0xbd3f7a94bcffb72cU,
  0xbd3f3e7cbcd2736cU, 0x3d1944c23cd99f5fU, 0x3c898fc53cd97382U, 0x3d189e223c50a51cU,
  0x3d49a5e5bd9d63d0U, 0xbbd9bb7cbce3c38dU, 0xbd8393aebca89b24U, 0xbc906c263b7fe8b7U,
  0x3d0242fabd4d93b7U, 0x3c8a2c13bd6c8ec5U, 0x3d463d88bcebe224U, 0x3c94f7113c9231b5U,
  0x3cf25cf0bc0ff358U, 0x3b50170cbccea87eU, 0x3ccc9c67bcc361b9U, 0xbc8d6cd3bd437505U,
  0x3c7e954dbc3d4efdU, 0xbd2492a13c95b2ccU, 0xbd7a2f5d3cc92416U, 0xbd77c6503d44f9d5U,
  0xbd45d1ab3d5a3e11U, 0xbcf87bb0bcf64c45U, 0xbd4573133d3adc32U, 0x3d07b1c53d2a448bU,
  0x3d7a7751bd7fa165U, 0xbd54748bbd7f030aU, 0xbc93b6a9bb169328U, 0xbd46de57bb97ece0U,
  0x3d7711583c137e83U, 0xbd5f5f643c117f7aU, 0x3d4936b03ccd38b8U, 0x3d3fd291b9216b36U,
  0x3d447caf3c94bbd2U, 0x3d24bee73d13e90aU, 0xbc3f79ff3c8eace1U, 0xbd5f4735bc8d97a8U,
  0xbc8d2ae8bca62bf7U, 0x3d141b6d3c3c125bU, 0xbd078a863d2696d5U, 0xbd2c6dd5bd4b4f4fU,
  0xbcf2162dbcda2a63U, 0xbcc3fec2bcdc832bU, 0x3c6d43423ccffa56U, 0xbd2f86dd3d5aef21U,
  0x3c906736bcfad4ddU, 0xbd2c04bfbcf2d10fU, 0xbd1151793ca96769U, 0x3d4810323d0c8033U,
  0xbd3589163cb5d384U, 0xbc5a2f7d3b820c33U, 0xbbb90b6b3d017a2dU, 0x3cb9ce4e3d536b26U,
  0xbd6d122b3ad5615aU, 0x3cf7d947bd0202ddU, 0x3d000ec83c4c5acbU, 0x3c8ffed63d47e16fU,
  0x3d3f68773b6eac73U, 0xbd0be070bcc4eb02U, 0x392e0701bc17365fU, 0x3c3eadcd3ce8c4dcU,
  0xbcbd9d8dbccb79e5U, 0xbaa58df4bcb6d0faU, 0x3d6fd999bd227fc3U, 0x3c017bcfbc7c6ec1U,
  0x3b844752bd7a9f3dU, 0x3ca743173c3fd004U, 0xbd94860cbbb5c706U, 0x3d0a90953d1de72fU,
  0x3d3e6d563db86979U, 0x3c7f96413d27d429U, 0x3b5159283d07da59U, 0x3da64b9cbdb266b2U,
  0x3c0da5363c32649eU, 0xbca1baecbc4965cdU, 0x3d27f55abd63fe96U, 0x3cb3cf8a3cd504daU,
  0xbcdf3f93bd25ecacU, 0x3c5141b4bd261bfeU, 0x3d07eef73d88cf21U, 0xbd7f9a5a3d852333U,
  0x3c918860bcc60133U, 0x3d2e636dbd42014dU, 0xbd2958a03d96b25fU, 0x3cbb7299bd2ed276U,
  0x3d42acc63aaaae3dU, 0xbb4e777c3b4bad42U, 0x3c0ab0103d7b4716U, 0xbb9a010ebaa7b52eU,
  0x3c540b093c0fbdd3U, 0x3b9d98e6bd0c7747U, 0xbbc8e8e2bc0f6372U, 0x3d68681abcbaa884U,
  0xbd003020bd6a970dU, 0x3d0bc08ebd2408afU, 0x3caa41ee3d24b40dU, 0x3c9ef6bdbcfed9baU,
  0xbcc88734bd920e77U, 0x3d02ae7a3a5c31c3U, 0xbcaba9a93d051678U, 0xbb9931c33a8735d1U,
  0x3d39b00cbb97e79dU, 0x3d09177dbd3b83e9U, 0xbcf19f9f3d9a7d9dU, 0x3bb169b9bd9bbf34U,
  0x3c8ae9bb3c27ddefU, 0x3c88533cbc38ed53U, 0x3d4a07ffbc88d9d7U, 0x3a88a0ac3d15af52U,
  0x3d1660cfbc382f8aU, 0x3d2ae1983d171557U, 0x38d80336bba64c8dU, 0x3cf190d43c68c072U,
  0x3c8d591a3d5c879bU, 0xbda62229bc004914U, 0x3c16e61cbd2a773cU, 0xbd84a32bbdaa67afU,
  0xbd2dbec8bd702054U, 0xbcabbf2cbbc199f4U, 0x3bfcd4993d17fd3aU, 0xbd7decbabd80c727U,
  0x3c829eb4bd277865U, 0x3c69f8463d0fb4f2U, 0x3d57cb4ebcc10cecU, 0x3d617cb3bbc3c14cU,
  0x3cd385093d021f76U, 0x3d3513ed3c4a9d6fU, 0xbc380cd63b6429b0U, 0x3d71b2643d54a649U,
  0xbd5298bdbcb4dcddU, 0xbd8173703d0e4606U, 0xbc7d0185bbe8bb85U, 0xbb77826abd91c182U,
  0x3c7496f43cc7aa3fU, 0x3c5cb019bd3f1044U, 0xbd2794363d4da1fbU, 0xbb87c43abca3c7faU,
  0xbc9143bc3c84f53bU, 0x3cff27b8bd52a905U, 0xbc87da103d169d77U, 0x3daf7ed73bcc0539U,
  0xbd395c4abd8d9f35U, 0xbcb19397bc9cabadU, 0x3d29cb2bbcd73002U, 0x3d0a42773d433fe6U,
  0xbaeb8dafbcb90217U, 0xbd8420413a3f4fdbU, 0xbd7e66f7bcca4170U, 0xbdccb37abd887a0eU,
  0xbcdb9429bc8433a6U, 0xbcbdb0fd3c30b8e1U, 0xbce03616bd3ce569U, 0x3a9dbc553d185560U,
  0xbd999aafbdc04440U, 0x3d0f87d5bd4030cdU, 0x3d5943a53c4846e3U, 0x3d39c46bbce1c6f2U,
  0x3d35122ebcce8a3bU, 0x3c5f4302bd0eccb9U, 0xbca0b5a0bd40cdefU, 0x3d8d2fe73d8552c4U,
  0xbd82d12c3d512871U, 0xbae8bb2fbc85bfacU, 0xbd78a1cc3b97ac67U, 0xbd95016bbd3dfb6aU,
  0xbbe58c453d1a6c84U, 0x3d7f876bbbe150c5U, 0x3c87ecbdbcadf7fbU, 0xbd7144593cfbd031U,
  0x3c8f7e83bb4d295eU, 0xbb2fa611bc5305c9U, 0x3bb10d4e3c255e73U, 0x3d361be0bca7b0e9U,
  0xbd1347ff3cf971ecU, 0xbafaecd9bca12ae2U, 0x3cf7eb63bc4c05a2U, 0x3cc559bd3d542c77U,
  0xbd6de702bd45411bU, 0xbd7a9c1e3bf8ab4bU, 0x3b206a7b3bca0196U, 0xbd519c16bcf05f50U,
  0x3d4e408dbc90380fU, 0x3d49e4593cc56f79U, 0xbdac6c43bd8208bdU, 0x3d419e633d05f541U,
  0x3bfad4b7bd8d33adU, 0xbc27f6fcbd478611U, 0xbc90b3913c113cb3U, 0xbca8a6b33c4042ffU,
  0xbb9eb1c83c8e7b87U, 0xbbb9d2803cbb38ecU, 0x3d486abdbd2f32dcU, 0xbce49e40bd542103U,
  0x3cb73bd3bcd02740U, 0xbd8fd08cbd869b23U, 0xbbf919e3bc70f5d3U, 0x3c7953fd3d41d526U,
  0xbc4fa72b3d97e478U, 0x3d4f7828bc9d482aU, 0xbc7f8600bbe034bcU, 0x3c53cd78bca613ebU,
  0xbd141ae83d85b2a5U, 0xbd4b7a813d719cb5U, 0x3ccb844a3d0dfaabU, 0xbcb78593bce9f4f6U,
  0xbd2918103d4d9dd0U, 0xbd6cd4023cd2198aU, 0xbd00ecbfbcefc2aeU, 0x3d8d169e3c8c70dfU,
  0x3cbf3820bc95d7a9U, 0x3c1ee08d3d23fd40U, 0x3cfbdd103cc3b700U, 0x3d0bb883bd36c4e4U,
  0xbaf4b272bd7d19ccU, 0x3d5672d73c3fb407U, 0x3d10471bba4a881fU, 0x3d74a24e3d39fb42U,
  0xbc92f5dcbc92cf6fU, 0x3bf863bebc3e5f19U, 0xbb74aab8bd45ccd3U, 0x3c9781b6bc583012U,
  0xbd000b773d28d3b6U, 0xbcaaa79f3d54af38U, 0x3d642ee2bd46d322U, 0x3c82fe38bd33ff8aU,
  0x3b9aac363d499041U, 0x3cae28c83d59b571U, 0x3c9750423c8c6dc5U, 0x3b0daad23d3faf5cU,
  0x3ba8c233bd6c5298U, 0xbce4d96abd035476U, 0xbd65302cbca962dfU, 0xbbdbac95bc1f94c8U,
  0xbca454ec3bc718e7U, 0xbcff2d47bd2634b2U, 0xbc896ddfbd766ccfU, 0x3d867be2bd46ee9aU,
  0xbb82780dbd30ee3dU, 0x3b91dbb0bd03d967U, 0x3d1f01cdbcd63089U, 0x3d8934ed3cd8ff20U,
  0xbcbc76d9bb0f0a90U, 0xbd189c60bd02f0d4U, 0xbd1edddbbd908141U, 0x3d4f51273cf10a4aU,
  0x3c32d82cbcbc7743U, 0x3ade576ebcb12089U, 0xbd68ff44bc1486ecU, 0xbcb88bf2bd0da28dU,
  0xbbb50568bc736d71U, 0xbcdb60b83cd97143U, 0xbd3b7a293c98ec70U, 0xbd2073f7bbf48440U,
  0x3c8a50f23d715549U, 0xbd3bd9263c990048U, 0x3cb3bd94bd73e761U, 0x3c41874c3a3394a8U,
  0x3b6edad03d391be5U, 0x3d6e1ce63cb45abcU, 0x3cda5b25bd2fd045U, 0x3cd9af603c309e76U,
  0xbcade8c7bd2c44b4U, 0xbcbd7d563bb2d4f8U, 0xbd5b9a753d0a11ddU, 0x3d64e32dbc15e41bU,
  0x39bd4bd23d6caa4eU, 0xbcdbf319bc32b57fU, 0xbc58d5c5bbdf4386U, 0xbd46b41abd7e61b5U,
  0x3c3cf7b93c462552U, 0x3c6482d4bd5d17deU, 0xbd480c40bd4d0f2dU, 0xbc2ebc7d3a9c1f57U,
  0x3d46ef183b057e9fU, 0x3d07eb83bc7e3a70U, 0xbd3ddf603d1cfc51U, 0x3cda209f3d403ab3U,
  0xbd250bae3d1c0e0eU, 0x3d2e1e66bc939ff0U, 0x3cfa07ab3d42fac4U, 0x3c7c7017bd17b222U,
  0x3c59c3dfbd085420U, 0xbd2b6a0d3d477bb4U, 0x3cde7fe8bd37dac4U, 0xbcb38cb23d00c780U,
  0xbd59fbeabd432fd4U, 0xbc90e9b23cd63db0U, 0xbcddf0ab3d2eb46bU, 0x3cbc3da2bbcf13caU,
  0x3d0bde193c024adeU, 0x3d02e3f73d04a0afU, 0xbcea168dbd6b75eaU, 0xbd06b24bbd0c80d2U,
  0xbcd5c3513c6f4dabU, 0xbc41c7ef3ca60d4cU, 0xbd0d5873bc8d55cdU, 0xbc8fe53cbd6bc532U,
  0x3d886a793d39b82cU, 0x3c099c393c4d4215U, 0xbcfb67bb3d388197U, 0xbd5593243c13f7b7U,
  0xbd68476a3cc8b885U, 0x3bed1d663b24da5dU, 0xbc9072b93d4a83d2U, 0xbd17d1e1bd0a4208U,
  0x3cc5a25fbd6fe92dU, 0x3d172190bba57737U, 0xba4314413d30511fU, 0x3cd319e4bd78e73aU,
  0xbc136272bd7bd829U, 0xbd4862bf3c782a58U, 0x3cc607513d09bb9fU, 0x3bf22920bc021b57U,
  0x3d0d1bc6bd02378bU, 0x3d165ae13d172188U, 0x3ca2d504bbafa167U, 0xbbfe3a923c0d7e3dU,
  0xbba9314ebd7a0cdbU, 0xbd761d73bbc45903U, 0xbd67a1d6bd361643U, 0xbcd4a34ebd57cf2cU,
  0xbd328252bc9efb0bU, 0xbd6870bbbd48cdadU, 0xbafc9395bc9fbb43U, 0xbc909b143bdbaa0bU,
  0x3d50a253bbfd96dfU, 0x3c872284bd2f0147U, 0xbc49c1153cf32d09U, 0xbd5d6fdebac4c965U,
  0xbd06dc1b3d50d6ebU, 0xbd5f67eb3bfef1aeU, 0xbd81d0efbd64241aU, 0xbd12bccebcbb64afU,
  0x3d76bb15bd32052dU, 0x3ce8ccdebd0c03c7U, 0xbd0924b63c6ed884U, 0x3d42bbe4bd019deaU,
  0xbcca85dd3b838e6cU, 0xbc812327bd7facfbU, 0x3d50c596bbdc14a4U, 0xbd4c852c3d03eaecU,
  0xbd43f56f3d31ea47U, 0x3d2d4ece3cabd657U, 0xbcf7d5d13d5136d3U, 0x3d49bb1bbd164d93U,
  0xbd6086123c4698a3U, 0x3ca97e8cbcfb1778U, 0x3d2e65cd3d2823f1U, 0xbd587c863c9db3bfU,
  0x3d32a1123d57a948U, 0xbd52ddffbd034ae2U, 0x3d6654c13bff1acfU, 0x3d7f7114bd1c26ebU,
  0x3d0738cebb8cf55aU, 0x3d2f75b5bc409dd6U, 0xbc0b3c7ebd73e52fU, 0xbd30caa6bd10a001U,
  0xbd2573babc1a1aeeU, 0x3d5596fa3d74fc94U, 0x3a6bfe733cf25d80U, 0x3ccfa4c9bd4240cbU,
  0xbd6cde2d3ccaa17fU, 0xbc72d6783d44152fU, 0xbb8c76203ce12369U, 0xbcfced3dbcade00fU,
  0xbd0ef14d3d7d838dU, 0x3c1a9facbd65da99U, 0xbc2c47d7bce57f58U, 0xbc88572bbd48a1afU,
  0x3d172a8c3d0d4beeU, 0x3d21c38abd644933U, 0xbd1a743abd36e3ebU, 0xba8570343d224027U,
  0x3d5d29fabdb03a07U, 0x3d2caca53c3a37ceU, 0xbc48c5f8bd59882fU, 0x3c00b73d3d0013e3U,
  0x3c204bb3bd2151aaU, 0xbc9d5a913be8e3a9U, 0xbd28ab00bcf8c54bU, 0x3cb43e4ebcc301d2U,
  0x3d32425bbd185fb9U, 0x3c1f957a3ce58bf6U, 0xbc2d9005bc8076edU, 0x3d24c7ac3bf96c90U,
  0x3b842a02bd1427dcU, 0x3ccecd393ca02a3bU, 0xbcd66422bd474e67U, 0xbc85a183bbfe1310U,
  0xbd009904bd610e35U, 0x3ca91587bcfdedc5U, 0xbd8d80ab3d5c59a9U, 0xbbcf304f3cb3952dU,
  0x3cf62be63d382eedU, 0x3adc1c88bcee23b8U, 0x3d2f9b33bbbdbbf8U, 0xbd86ac403ce8a7aeU,
  0x3d83dbe13d8f6b7eU, 0x3d0d7fb23d75719aU, 0x3cf0ee19bd075250U, 0x3d7428bf3d5cda8cU,
  0xbd536bce3c103892U, 0x3d91950fbc10c095U, 0xbae7d4323d2353d4U, 0x3d4c5083bd848efbU,
  0xbd360434bd65a2eaU, 0xbcf419d93ca8531dU, 0x3ce7ef993d275322U, 0xbd04b8c03d38d815U,
  0x3c2b737abd2c8398U, 0xbd558102bb941275U, 0xbcb302e33ad16301U, 0xbd7f5c25bbaf3b59U,
  0xbd1a3f5b3d3a788eU, 0xbcb9d4f33d3e55e4U, 0xbd5525523cd5c726U, 0x3d9211fabcc65e0aU,
  0x3d2c3006bd23e250U, 0x3d47a355bcce62f9U, 0x3c0ce9dc3d0e6de9U, 0x3bd23eab3cdd2a89U,
  0x3d38a79fbd50a11dU, 0x3d478a74bce2ebe0U, 0x3d000c6abd3e3297U, 0x3d1b5537bd005169U,
  0xbcb60a0dbc3cb3a6U, 0xbd7d8d2fbd3915d9U, 0xbd03591abbb8026cU, 0x3ca6c18dbd7e7ef1U,
  0xbd6ac5013d39e556U, 0x3bff34f43cecd2caU, 0xbc5d3fb3bd5dab9fU, 0x3d85bb953c62d830U,
  0xbd33aa4e3ca4f2bbU, 0xbccfb626bccd2b55U, 0x3c12aab3bd7f19caU, 0xbd1a04f7bd025fe2U,
  0x3d541d86bce881b1U, 0x3d13dc943cea6aedU, 0xbd4ccf11bd54b4cfU, 0x3d5c75883bb1df74U,
  0xbb5c25f4bd113b0eU, 0x3d0892a4bcb3b0a0U, 0x3d3f9d6b3c516d60U, 0x3b069707bd1db96eU,
  0xbd44ac20bc9d7526U, 0xbbb8a9673cfcd79aU, 0xbbbf37be3c58cd42U, 0x3d06b6c33d3d9c32U,
  0x3d09e7aa3c6dc8c5U, 0x3c8388ac3d3aa21fU, 0xbd31606dbd0e2e35U, 0x3c55cdfc3d0f155fU,
  0xbc5932953b80818fU, 0x3d4554ce3d9da8c4U, 0xbcac2c363c3be76aU, 0xbd2362da3c6deb80U,
  0xba50164fbc84f3bbU, 0xbc42948b3d5c40faU, 0xbd45a84bbd2adbe4U, 0xbd8e5b7abc4777f2U,
  0xbd150309bc51a6edU, 0xbc06437abcd3949fU, 0x3b442aefbd856377U, 0x3d614639bd4aa22dU,
  0xbd240e333d16b1a5U, 0x3d4577823d0a3c72U, 0x3d824f1abcac2d4cU, 0xbd1b96aabd191386U,
  0x3d804ca4bd8ecfb5U, 0xbd3698db3da8b0efU, 0x3d38f40d3d47aafaU, 0xbd02b6713d3019b3U,
  0xbc6f96843cb82f81U, 0x3cfa45ea3c891ee8U, 0xbd18f025bd328309U, 0xbd6564a73b3ade1eU,
  0xbcae04dd3cae4b31U, 0xbbbd5fe0bd6f8266U, 0xbc5fe424bd24ee25U, 0xbcdb30b93d85c613U,
  0x3c717f24bb80c5caU, 0x3d6d9a053c36074dU, 0xbcd1ea53bc4b512dU, 0x3c122624bd5f80c4U,
  0x3c93aa063cc38d67U, 0x3bf70806bd825ce9U, 0xbd18f76c3c871391U, 0x3d3e9ed73cccee0dU,
  0xbbec03703c4bc8f2U, 0xbca0ba2abd995103U, 0xbb860cb5bd3f1f97U, 0x3d834f55bd13d5adU,
  0x3d0ed261bcda7917U, 0xbd85a843bd2b11e6U, 0x3d16b0373cf7e89fU, 0xbda9d3b83d3c5813U,
  0xbd994e5dbdaa7676U, 0xbd0b78f4bc2ce773U, 0xbc75776cbc2fa721U, 0xbd5898733d889abeU,
  0xbd26025f3ba046abU, 0xbd8dd78d3bd2d91aU, 0x3c86c76cbce23f02U, 0xbb84c45c3c87a460U,
  0xbac1597dbc8d7ac0U, 0xbd01d2a2bd813eddU, 0xbc02b8d13d81dad4U, 0x3d6ef9ff3b377c63U,
  0x3d89c6d9bce44214U, 0x3d227ec6bd58b1e6U, 0x3d73028c3ca81e55U, 0xbc680db33d6b9bb8U,
  0x3c9020ea3c885591U, 0x3cad29afbbea4e55U, 0x3b3b9be2bd8c1863U, 0x3bf376693d126890U,
  0xbd8ad8d83d4229a3U, 0xbc042b263ccd4875U, 0x3d30eb53bd4e1adaU, 0x3cf099aa3d308308U,
  0xbceb27cb3d503259U, 0xbd805e34bd5ff790U, 0xbd957c33bc3bb9a8U, 0x3c8a7e02bcbc3fb2U,
  0x3d55aaedbdb33969U, 0x3ca8dac93c618ab7U, 0x3c56e1a0bc86e894U, 0xbd874ea43c6064d3U,
  0xbd4b01dabccd8811U, 0xbd6b1c7dbce78564U, 0xbc7c2ee2bd9d09f2U, 0xbc1b0c613d021af4U,
  0xbd011decbb88228eU, 0x3bfb2b4c3d1d4d7aU, 0x3c9068b8bd590767U, 0xbd04a2ef3d6b773fU,
  0xbcc5405ebd23adadU, 0xbce2da213a3d45f5U, 0x3c9c9f9abc930947U, 0x3d696519bd7fd1d7U,
  0x3c1cff54bcf8eedaU, 0xbd4e931d3bd5fef3U, 0x3c58f553bd46763cU, 0x3cb43af1bca0a609U,
  0xbd2fb185bd4119b4U, 0xbd41e93cbd35c643U, 0x3d74414ebd22faf8U, 0xbd0ddf673d022c4eU,
  0x3c9304b43cd73c69U, 0xbc92929e3a2c6c71U, 0xbcaf5948b9e63880U, 0x3c2b17e6bd3cb07cU,
  0x3d1e67c8bc4aad68U, 0x3c9a7d513bc93515U, 0x3c64bdeabd2fda71U, 0x3d82f9b2bc9bc6daU,
  0x3d1b689c3c2e4e1dU, 0x3c751b333c09de97U, 0x3ba087383d873056U, 0xbc0f7a04bd3710f0U,
  0xbb4daed1bd86b4b1U, 0xbd0fba4b3cbca763U, 0xbd81b30abd279d52U, 0xbd71b92cbc801b17U,
  0x3cf09610bd286436U, 0xbd681a953c1f6e69U, 0xbce429113db14fdbU, 0xbd46401bbd1b14c2U,
  0x3d8a8b6fbbf266b7U, 0x3abce111bdb54a39U, 0x3d024d653cbe2f23U, 0x3c9d04163cc5acdaU,
  0xbd63b8e73cb9f41fU, 0x3bdf6d553cb7de40U, 0x3d4bc0ac3cc0425aU, 0x3d4bcc933d11045aU,
  0x3c9754833ce3f911U, 0xbd1febefbc9bfb4aU, 0xbcec5767bd9b3ecaU, 0xbc71d8fcbc812a58U,
  0x3d152d41bd3177ecU, 0xbd34a79f3d69a330U, 0x3d18a30d3d34a886U, 0xbc7927c9bd0b4153U,
  0x3d3e138dbd996b5dU, 0x3da9ef4abd05efaaU, 0x3cb8c9ba3cbfc347U, 0x3c9fd96ebc1998caU,
  0x3d4567853d8c4969U, 0xbd256b4cbdb167e6U, 0x3d5c81863d688fb7U, 0xbd6880d2bd4ff101U,
  0x3ca2f22e3d74bfe2U, 0x3cc2b06e3c597200U, 0xbb75c6943cd154daU, 0xbd7d708e3d34b083U,
  0xbc8cbfe53c6bda4aU, 0x3ceb20c4bd0a9c72U, 0xbd89f4ebbd3fdfb7U, 0x3d725521bddd6ffaU,
  0xbd12f38ebdac4076U, 0x3d2e2984bbb2a703U, 0xbca6705f3d23e382U, 0x3d632bf53c48f034U,
  0x3bf33f3fbc40a425U, 0xbd808435bd660e43U, 0x3cb94a363d03f59fU, 0x3c72e101bd478516U,
  0x3c0d302dbbf275beU, 0x3d552cebbd8a0cccU, 0xbd34750fbcf1d857U, 0xbd1946953cce28ceU,
  0x3cd556e3bd0ea249U, 0xbd71bc56bd8c9550U, 0xbd4954b6bd343479U, 0x3ba33d08bd430c32U,
  0x3d4f1d0dbd52b3f0U, 0x3ddc183dbc43cc83U, 0xbd0a37a5bd474017U, 0xbd266900bd80fcefU,
  0x3c39f1d4bc7c6465U, 0xbc7450173b85207eU, 0x3daebaff3ca3aa03U, 0x3ab4abd93b9208f8U,
  0x3d2b1367bc83871fU, 0x3d4a0a28bd8fb779U, 0xbcb0f5cebbd16f53U, 0x3c28a5c53d4c7655U,
  0xbb710542bbddf51eU, 0xbccf0d58bcbff0eeU, 0x3c80646c3d207595U, 0x3dc7e35e3c1f0bb6U,
  0x3cf18f3b3cac6a28U, 0x3d5034e73c4bedaeU, 0xbcf3aaae3d120319U, 0x3b938adcbc95b564U,
  0x3d24f6913d1bbc9aU, 0xbd84d3c8bc99f7acU, 0xba891f0fbb267ae4U, 0x3d17d0033a627c70U,
  0x3cd17c9ebd5637c5U, 0x3cbdea053d050a95U, 0x3d4520f73d238ed0U, 0x3c89f47eb9ae2fc9U,
  0x3b98e375bd562293U, 0xbccff9223c3f8508U, 0xbd3725173d5f62afU, 0xbd43b642bc3eeb14U,
  0xbce1ef0b3ce86c39U, 0xbb1ca4563c918e21U, 0xbd252b6bbd421953U, 0x3d11bca1bbe7aa99U,
  0x3c565fe9bc625396U, 0x3d38796ebd126a6dU, 0xbc8b90ed3d124f2fU, 0xbc8ee13dbd547a47U,
  0xbd16bc9dbbc4a82bU, 0x3b268cf43ca023aaU, 0x3d1034d6bb386d9aU, 0x3d088d343d68aa25U,
  0x3c9b7ed2bd07deeaU, 0x3d4b43b03cd4826aU, 0xbd5159f1bd5f69ebU, 0xbd20b90c3d5785d8U,
  0xbd79e89b3d6491aaU, 0xbd4e10b7bca8a18aU, 0x3c8db755bb95dd1eU, 0x3cbc191fbd373f0cU,
  0x3cd42292bd039866U, 0xbd08ecad3c922413U, 0x3d1a98773d74bd7cU, 0xbc9318a83be8021cU,
  0xbb204758bcb38d3dU, 0xbd47a43cba8f6221U, 0xbd1085db3d78f92cU, 0x3c95ba403d5e911bU,
  0x3c02cab2bbfb39f7U, 0xbc0987813aec57aaU, 0xbb7956f3b8f953ecU, 0x3c0b1438bc37ccb2U,
  0xbd20f5f13d051a1fU, 0x3d24e1643ca3d5bcU, 0xbd69af5ebd06125cU, 0xbd93ac50bd85cd80U,
  0xbd5169ddbd23a09fU, 0x39dc9a983b0c0b7cU, 0xbcd98132b9f1e869U, 0x3ca660763c8d165cU,
  0xbc807f5b3d123e10U, 0xbd4502b33b70bde8U, 0x3d911478bd2f47b6U, 0x3d24ecf33cefa88fU,
  0xbcf5debcbb9cb4caU, 0x3cff4f393d0823a5U, 0x3c7133de3c3c59d7U, 0x3d7e8d62bd2c1335U,
  0xbd1fbbee38de9657U, 0x3d681531bce4f97dU, 0xbc80ff9f3bcac14cU, 0x3d31bda3bb6b3f1eU,
  0xbd36ea8f3cadb4c4U, 0x3d0d5d7a3b068ef1U, 0x3d2a3cd0bb7f9b51U, 0xbcde7000bc5eef93U,
  0xbc53824b3c4dec97U, 0xbd3270e03d63d9ecU, 0xbc967b6cbd3241a0U, 0xbd53e7b2bc925874U,
  0x3d449d523ac44893U, 0xbd50c038bc4e4c99U, 0xbd212d0c3d207b1fU, 0x3d00bddebd3732daU,
  0x3ca059b33cef19d0U, 0x3d16b0453c80f5cdU, 0x3b1ec16fbd6bcc21U, 0x3c64b7623c4989f8U,
  0xbd1c25e8bd48ef31U, 0xbace72493cc837c5U, 0xbc38569bba9492e4U, 0x3cb939f43d519096U,
  0xbcb06c28bd1ab4c1U, 0x3d00070bbca39941U, 0x3d1b23e33caf5a6eU, 0x3cb032d33cd8f41cU,
  0x3cb9c278bd01c812U, 0xbd0deefd3d869f58U, 0xbcc78ee6bca3c0b6U, 0xbc5f3922bc68060fU,
  0x3d08a5743d85ff90U, 0x3d40390a3d2184c9U, 0x3c2b5846bc324a1aU, 0xbcf724c83c97dbebU,
  0xbd484974bd25dfdeU, 0xbd52a2c0bd633197U, 0xbc674309bd7d612aU, 0xbd7809fd3cca1094U,
  0x3d34b6f93d3de237U, 0x3c2c92b5bd60e3e2U, 0x3d13acea3d35735bU, 0xbd4c240a3d78eb73U,
  0xbc9891b93b3be1c2U, 0x3d2a254fbbf7444cU, 0x3cf4797cbd549a0dU, 0x3d30a67b3d1787e4U,
  0xbc5dbc49bd6255d6U, 0x3d1d05fe3ccac95aU, 0xbd655cdd3be409b1U, 0xbc557b413d142479U,
  0xbd00e56abd27bb16U, 0x3d22be7bbcd084d8U, 0xbd5c78ff3c35609dU, 0xbd2b2b86bb9d8e21U,
  0xbcd31827bcdf465fU, 0xbd1893d5bd741743U, 0xbce345bd3d397ce0U, 0xbbbe9d24bca2eb08U,
  0x3d678e90bc2a8302U, 0xbd2931103cad6320U, 0xbd2b037bbd019d31U, 0x3bc561443ca50c04U,
  0xbd6ef921bc6c7f25U, 0x3d0ed6debc1ff164U, 0x3c1649bfbd0c6a13U, 0x3d68adc83cbdb003U,
  0xbd121ec83c2e3793U, 0xbcec59a2bb712c59U, 0x3d61ef7ebd2ffafeU, 0x3cc591173d865d49U,
  0xbd1a4671bc0618baU, 0xbd7f69fc3c4ac9e5U, 0xbb347bb23d7817e3U, 0x3d29516a3d73ed7fU,
  0x3c3e39abbc8fcc2eU, 0x3b2cdbfa3d0e77d1U, 0xbd496a233cbb2619U, 0x3c024403bc8df702U,
  0xbd4ddf4c3cc61656U, 0xbd5c9887bd29722dU, 0xbcdf8932bb4da986U, 0xbd98dc8fbd99e257U,
  0x3d026c6ebd4092b7U, 0xbc6e7aa8bd2705d9U, 0x3c926d7abd6570cfU, 0x3c0f43e53d118323U,
  0x3cc1bdb53d4a01b8U, 0x3d48e455bd359235U, 0x3b9e4f443d8d9cfaU, 0xbbbb24ec3d15258dU,
  0xbcca873bbd07adbaU, 0x3d5fe51d3c903743U, 0x3c999fd53d0f88aeU, 0x3d27b2aabd00fe11U,
  0xbd1faa93bc9223fcU, 0xbd3c1f4fbd3d85bdU, 0x3c284952bc53167bU, 0xbd7ae030bd426689U,
  0xbcc89cb4bc73dcedU, 0xbcd7e197bd4078dcU, 0x3d6bbec73bfd0db2U, 0xbd09e67cbd515446U,
  0x3b95e73c3d00cf83U, 0x3caab852bd38d02aU, 0x3d107c763c9d029fU, 0xbba427d3bb3c111bU,
  0x3c21aa0239dec2adU, 0x3c91d429bd6ec668U, 0x3bf28705bd3a550bU, 0xbd29b072bc3661d5U,
  0xbd0d8d2a3c66d5edU, 0xbd0b50f43c79efa4U, 0x3d31dedebd0b4951U, 0x3c8e9956bd788423U,
  0xbc55f40bbd6118ebU, 0xbd53b798bd159753U, 0xbaed98c7bc8af87eU, 0x3be308cb3cd80045U,
  0x3d1900d5bd3ef06cU, 0x3d52f240bd4860cfU, 0x3c62012ebc595009U, 0x3d16d98abc53882aU,
  0x3d3c3cf7bbbc6802U, 0xbcc3dfe13cdf89a8U, 0x3d0d1c7abd1ca1ceU, 0x3c33acf6bc6df917U,
  0xbc28b79d3b0bf397U, 0x3cbcf4043d3a7f7dU, 0x3c1882eabaf1f5f4U, 0x3d0414adbb0055f7U,
  0xbd75e93f3c61a8edU, 0x3d84d4833c7c2c9fU, 0x3d21549dbbf7a296U, 0x3cda2741bd26e58bU,
  0x3d0680e1bd282297U, 0x3d00ee1bbcd0cdf5U, 0x3b9c6513bd2780e0U, 0xbcd0b5013d739a03U,
  0x3d0ee0a03ba9dbe0U, 0xbcdfb6a4bd05abedU, 0x3cebfb34bd108f5aU, 0x3d01842cbca2f714U,
  0xbbe775283c7c80c8U, 0x3d7600c23d210b5bU, 0xb6f350393d359156U, 0x3d392b113ce0a7bdU,
  0x3d01cbd6bd1713aaU, 0x3bf76d993d17f556U, 0x3ce56682bc960278U, 0xbd6598b4bc2be9b9U,
  0x3caf89973d286c9aU, 0x3c7bc0c2bd59e6f1U, 0xbd2c8c71bb1588dfU, 0xbd24565a3d7f877eU,
  0xbcaa963bbd58ba25U, 0xbd4993f0ba6f38e1U, 0x3d13ba6fbc71918cU, 0xbcdcf5f43a1ed9cdU,
  0xbd70f21dbc77b3b3U, 0x3d40696d3cb397ccU, 0xbd2e5280bc81c2f4U, 0xbca2d237bcd52f6fU,
  0x3c070626bd045679U, 0xbd02934e3cc51e5dU, 0xbd5399b93d410b18U, 0xbd543920bd4ae9bbU,
  0x3ca26a89bc01e090U, 0xbc049cc4b918f98bU, 0x3cd7659d3d5a24fcU, 0x3d1cb14d3c8a5df0U,
  0xbc539c3dbd568313U, 0xbce3eee53ccc44f8U, 0x3d20958a3cc2239aU, 0x3c68d768bd69a32bU,
  0x3d17fca73d293956U, 0xbd196ffa3c3dcf90U, 0x3d2d48ba3bb58517U, 0x3ca5cf953d61b6f8U,
  0x3d2a7bdd3cad572fU, 0x3d8f6d2fbca2df56U, 0x3d3121dd3ce61935U, 0xbc94a0833d7874adU,
  0xbc91c89cbd003293U, 0x3d59609d3cc9e00bU, 0x3aba64dcbbb47515U, 0xbc8208963d2904f9U,
  0xbd5fb3c3bb42e11fU, 0xbd562a413c103cbbU, 0x3d4231b03d210091U, 0xbd2a091cbd0e0edcU,
  0x3ca0e98cbd477951U, 0x3c85752b3cf99708U, 0x3c1a26f33d235690U, 0xbc4d9d2c3b93d36aU,
  0xbd8250623d86a662U, 0x3d4072553cd17e8cU, 0xbb72a2583d2967bfU, 0xbd103ec33cea73ffU,
  0xbd62274a3c16fcbbU, 0xbd034ec23d0ce735U, 0xbd5ea3b0bcb6250dU, 0x3d2a19d13c6a0232U,
  0x3d56f7f93d441163U, 0xbb909dcabcb5f594U, 0x39cee6803d649d4cU, 0xbbe8fe0bbbdd2260U,
  0x3d7e5cd53d3e99d4U, 0x3d54dacdbcc3702fU, 0xbc98ce36bc5b25c5U, 0x3d474871bc246a8fU,
  0xbcb944513d67bbcfU, 0x3b3e641a3d674c31U, 0xbd1df7fa3c8664b9U, 0xbc91de483d7781a2U,
  0xbbacd9dfbc358ad1U, 0x3d3f3e28bd663556U, 0x3d4fa6c3bce3c958U, 0xbc2a16e13cda532bU,
  0x3ce78cc2bd1e84e9U, 0xbd1185883d4591cdU, 0x3d1ddaf0bc868d90U, 0xbd22c51e3c4e565bU,
  0xbbd86a77bd6d5325U, 0x3d4254333c9df23bU, 0x3d04e25f3d3d7c36U, 0x3d91d88abd0439dfU,
  0xbcb293b7bc0787c9U, 0x3c5c285e3cd919daU, 0x3d60f775bc6eb307U, 0x3c775be03d2f488cU,
  0xbd862835bd42f87bU, 0x3b38487fbd3c436cU, 0xbd94397ebb9a45f7U, 0x3cfa68bc3cafdbddU,
  0x3d75395ebd6729f4U, 0xbcbb38ca3b6b843bU, 0xbd84db593cb43fdeU, 0xbcb2a40bbd1f87daU,
  0xbd5e7cd6bd989ddeU, 0xbcae2d6c3d0ff104U, 0x3d509fc23d8e4f2cU, 0x3d52d73cbcfae027U,
  0x3c059ccd3d51a545U, 0xbca59e613cf29526U, 0xbc7da54dbcec1f64U, 0xbcf68723bcbdb7b1U,
  0x3d24bce8bd48e00aU, 0xbd390ef5bad7c272U, 0xbd6ed6573d2abdd5U, 0x3bb49516bd74635bU,
  0x3cea04c8bd37e346U, 0xbc085a69bd4ac38aU, 0xbc9ba39fbcc561e6U, 0x3d8ac510bbc313a4U,
  0xbd1028bdbb8f23cbU, 0x3d7b70a53d630ebdU, 0x3d2e7d733c4d3b9cU, 0x3d5e85f63d05286dU,
  0x3d0085e23c7c8684U, 0xbd54580dbc607128U, 0x3c5712753c24c7b9U, 0x3d145a57bc07f2eeU,
